[PAD]
[SEP]
[CLS]
[UNK]
[MASK]
0
1
2
3
4
5
6
7
8
9
a
b
c
d
e
f
##d
##5
##8
##0
##c
##b
##2
##9
##3
##7
##6
##f
##4
##e
##1
##a
00
000
0000
##80
05
##50
##01
##c0
##0a
##1a
##45
##4e
ad
##0a8
c0a8
##805
54e
##1ad
54e1
e1ad
a805
##40
##30
##33
##10
##83
080
##a0
##06
83
0800
40
##500
##04
4500
0045
06
0005
10
##17
##6e
400
4000
##7a
##54
80
##d0
##e3
0080
a0
6e
7a
17
e3
501
8006
05a0
056e
ad83
1704
ade3
e317
7a33
837a
##dc
##2d
##92
##db
##53
03
33
05dc
92
db
00c0
060
##308
5010
##d00
##454
dc
0600
6ec0
0454
3308
530
2d00
922d
5303
db10
12
02
##ac
101
03db
a053
1233
3392
##4a
100
##f0
050
##9a
0500
##ca
##29
##57
1012
##90
##12
040
##9b
9a
002
01
cb
020
##e0
##c6
0002
##96
0b
16
##ff
##36
0054
cb29
9a4a
9b
29
##de
ca
83ca
f0
##55
1000
5018
3354
0408
18
##32
6f
##70
96
0200
4ac
##20
##7f
4acb
a09a
28
##58
##d6
0b9b
a0c0
00d0
11
##016
9b92
##4b
##c2
d016
1654
##98
caf0
0028
##cb
##e50
010
##60
##11
1053
0010
14
6edb
##82
##d7
32
50
##1c
90
c0
##cf
##5b
b8
##8e
1014
##69
##650
##51
##fb
##a50
##52
100b
07
98
##42
##56
##250
##b0
0001
##ce
##d8
##1e
##fe
##48
##77
##5a
##16
##f2
##ba
1812
de0
##d2
##be
##5e
##49
##46
##011
ac
##3a
##47
4a
72
be
##9e
##573
##da
##4c
##f6
##fa
##d3
##76
##43
36
4b
20
0a
14ac
d6
0055
##89
c2
5573
ac6
##35
##1b
##d9
##72
##df
c00
##8b
##3c
##7e
##7b
##86
##19
0400
c000
##73
ac6f
7f
b8ac
##59
##400
0a0
##41
52
##fc
##7c
dc0
9890
9096
96a0
##4d
70
##78
##5c
##f9
73
0040
##79
65
##39
0101
180
##8a
##4f
aa
##3e
##81
##5d
6f36
62
##cc
##1f
657
##5f
0100
##8c
d7
736
##9c
##900
##1d
##ac5
dc6
dc2
##ea
##8d
6572
##502
7365
76
##14
##3b
42
60
##8f
##7d
4c
021a
46
3a
1ac5
4e
##100
1e
##b2
f2
30
4004
##440
##940
de00
##13
##d40
a2
e7
bede
ce
57
56
906
2e
cf
##99
ab
1a
7e
01c0
e0
5b
0f
d601
f6
##dd
##44
##71
##540
##140
69
##3f
##b8
0e
006
8011
6a
04
##c9
ae
8b
66
b0
26
2b
5a
7b
##ca2
0004
e2
ff
fe
##c40
eb
##3d
ba
2a
##88
180b
##75
6b
82
801
##800
4011
1ca2
f057
361c
d0
##15
5e
86
##18
3e
fa
3b
1b
adc2
22
##065
9e
2f
9d
b2
4b69
##840
00de
##9f
3f
de02
##37
ea
c6
##34
##e8
##740
10a
299a
##340
a6
da
8e
41
##a00
##9d
8c
b6
0020
##74
2d
f096
bb
##38
fff
8a
fb
21
6ecb
5400
4f
f065
de
9f
##31
1f
582
##21
080a
0a00
0108
d9
##208
e6
0027
ee
##d4
##f00
49
14a
f9
d2
08
51
##501
7c
##700
6d
##300
582f
a058
ffff
d8
##c8
0a08
##fd
e8e
##c65
##2f
6550
c1
5f
##b00
##84
0008
##85
##ad
##550
fc
e9
##ef
##f08
09
##f1
5254
8f
48
323c
ef
e732
##200
3c65
e8e7
##e00
2c
19
79
##c1
39
d3
##bd
43
##f3
##bc
##607
##f5
##d50
bf
##ec
0102
##c00
##62
c501
##d5
59
c502
99
14aa
61
0012
1008
0208
2006
0032
##b9
##d1
##b5
##58c
91
89
d7d6
6c
3502
##b6
8c6
1235
##bb
df
##fb8
##6d
ec
5c
104
##b1
a9
##c3
##01b
88
53
##c5
b9
##87
0050
77
##775
3c
23
1ba
13
27
c9
31
e8
af
9c
##600
106
8d
63
71
0210
##91
1d
##6b
8010
37
##e4
1c
##b4
##f4
##cd
3d
000a
##22
020f
##f7
##27
##25
0083
47
##08
##26
81
##28
##95
f3
2775
8c62
758c
78
##2e
##61
##bf
1bae
##2a
a01b
7d
0d
0c
##f02
5d
0110
##ed
b3
##65
58
##b3
a1
bc
c8
68
##f8
38
67
4d
##23
##93
f1
##97
##66
1100
97
7354
##eb
c3
##e2
##b7
##6a
a208
4c7f
b7
##ee
e1
##c7
64
##e6
280
##e9
906f
##e5
##67
a8
a3
cc
##63
##e7
006f
##c4
bd
cf7f
##2b
c24c
##94
d1
b1
##68
##e1
##2c
93
3607
f0f2
07cf
9d51
44
##24
ed
f7
fd
87
45
##a4
34
d4
84
f04
dd
##64
c7
0070
##6f
f8
a7
##6c
##a6
##9ab
005b
a4
5783
283
0805
2f08
cd
0132
54
74
00ff
55
##aa
00df
c2cf
b4
ac4a
5008
8018
800
df02
001e
24
##a5
0003
7f83
0048
e4
906d
##a8
##a2
6900
50ba
a050
94
f041
##ae
15
##e08
6f39
c4
75
f056
##a1
39ab
##a9
ab73
454
d5
6252
0802
35
008b
00fc
8000
f4
4800
25
0089
29b
##a3
95
4a0
2fb8
8900
d942
##af
21f0
033
c1d8
4006
a5
##a7
0203
##ab
d8d6
f5
85
498
d754
296
0310
ae08
ec0
7250
8310
9064
0006
1808
e5
c5
0650
29a
b5
1814
9683
290
cfb8
##cbe
##50a
6208
0034
f650
##d7e
de50
0016
002e
292
f57
##290
1250
433
47f
4e50
c650
706
d3a
cfb
0250
5098
##48c
5100
8312
4a50
7e50
00a0
007f
##104
a2b8
##a08
007b
11a
f283
b5b
7ff
117
##107
cf08
008f
##89d
6583
4988
d250
2e11
##7ad
3250
007c
##05
9250
4650
122f
5e50
1a50
2250
1e50
7650
aa50
ce50
4250
3650
fe50
c250
6250
5650
b650
6650
1650
2a50
5a50
3e50
3a50
6a50
14e
2f92
7a50
2e50
6e50
5250
d650
##f05
a650
0a50
0e50
ee50
b250
e250
9a50
8a50
ba50
ca50
2650
e650
8650
a250
f250
fa50
ea50
be50
8e50
da50
ae50
9e50
9650
8250
112
a2e8
efe
##508
##1b8
##fbe
7fe
50ef
##298
574b
##d26
##51f
600
569
##175
96e
##9c3
002c
02d
07c2
5683
0090
e251
0808
##ccd
##82b
0023
0f83
7308
1021
7230
4200
72e0
dc40
8dc
110
d3aa
1db
0037
##1c1
##c05
7e12
eb00
47f4
##9be
##9e2
cfb3
f576
4183
4338
2d92
c24b
0780
004e
932
e48c
##b08
##e05
7f0a
eb6e
8cdb
cd00
##76a
aa00
4d00
##ccc
7f11
##902
920
650a
96c1
500
d400
d89d
ff00
7900
ae98
0030
ba08
##f07
333
##c91
ba98
##fc1
04b
acb
250
c308
##897
003a
##126
##5ad
##a05
00d4
##49d
d454
##504
##207
d4d6
##54b
73be
41a
db0
ace
cece
##fad
ac0
##105
00e0
e00
##908
acf
616
4a00
##305
96ad
1821
##d60
##c60
c5b
14eb
2d0
##9c8
##fe8
7280
##43f
bcbe
70bc
ec0a
##304
042
60ec
1049
91b8
0a82
7290
7220
aca
82be
1080
260
57f
698
ac2
b870
1001
2c11
dc00
##046
0803
dc0f
##705
##802
851f
8d4d
8ccd
##309
##405
##176
9200
0de
##8e1
f632
aa40
##d21
514b
c1e
7fe2
0b9a
4508
0576
0562
046
10ff
3300
##905
047
50b8
caf3
##8f5
700
003f
##ead
045
7600
6be
060a
69cf
0ac
7573
2bcb
##4a5
043
005e
200
782b
00f0
d854
320
00b0
##d05
002d
0440
000e
cb9f
900
9320
2c0
0647
6000
429
cccc
##801
8dcc
4f81
8175
##042
91be
51c1
65e
7398
57ad
1040
569d
cc91
dc5b
012
806
3800
350
e76a
70a
6904
4b00
f400
2807
696
960
0700
db00
cf40
##b05
##7b5
c540
##7b2
f0a
##7c5
0081
0c0
048
ce40
e000
f904
01a
c240
c440
cd40
cc40
c640
c140
##589
ca40
c740
##4b9
c340
c940
c040
cb40
0082
dc01
##2d7
dc54
6f11
c840
5be
a298
0640
1f00
0740
dc05
306
ce00
##d25
8c79
1101
04e
04a
##505
##59f
0940
1240
0ce
dc0a
##205
170
401
##7c1
272
dc66
dc7a
9f84
dc02
6400
dc50
dc08
dc42
dc52
dc61
dc45
dc4d
dc4e
##605
dc5e
dc6e
dc49
dc5d
dc0d
dc72
dc41
dc47
dc09
dc22
dc06
dc28
dc32
dc7b
dc63
dc6d
dc7d
dc1a
dc51
5e00
dc62
701
dc79
##803
dc5a
dc2d
dc75
dc56
dc65
dc7e
0078
dc4a
d800
dc21
dc16
dc6f
3200
dc6a
dc76
dc1d
dc58
dc2e
dc43
dc12
dc39
dc7f
dc4c
dc78
dc44
dc15
dc69
dc59
dc46
dc3d
dc0e
dc2a
dc04
dc48
dc6b
dc67
dc4b
dc57
dc07
dc4f
dc1e
dc3a
dc37
dc36
dc5c
2054
dc26
dc70
dc64
dc55
dc5f
dc33
dc3e
dc53
dc19
dc77
dc35
dc25
efeb
dc7c
dc23
3500
dc3f
4a05
dc31
dc29
dc71
dc73
dc6c
dc60
dc0b
dc1b
dc68
1849
dc27
dc30
4e1f
dc2f
dc3c
dc1f
dc14
dc03
dc11
dc3b
000b
dc10
dc2c
dc18
dc2b
f0f9
dc13
dc20
dc34
dc1c
f94e
dc74
dc0c
dc38
dc24
dc17
000c
1db0
120
##566
d354
1e49
49db
19c3
7040
0111
c5a
##302
db19
##49f
0058
1fbe
0202
##fa4
32d
69e2
0a0a
##dad
##5b2
0077
0201
d3d6
7240
2840
0340
017
fe80
7f2
##ff5
71a
##dc5
9b8c
d040
64b
##d22
23e
1140
6d6
648
2d11
##0ad
406
##707
##491
bf40
329
b540
bb40
01fe
b940
b840
b040
b240
ac40
ba40
b440
bc40
bd40
ff02
be40
##167
0088
96e9
a00
b640
##418
b140
6db
2126
b340
b740
9700
2603
3333
c8e1
##702
##78d
3f11
##9ad
886
0e04
0060
506
c897
26db
b06
f43f
65d3
dbb5
aaac
304
160
ad0
2640
7270
08f6
704
006a
5b2
##a04
41ac
72f0
4ad3
##761
dd60
2940
300
86dd
6dc
##5a2
##2d9
00b8
b5be
##402
b304
##303
0fac
##d79
107f
7f12
3d50
7f07
##45f
##202
2d40
0035
8400
0007
5147
0240
780
0a9d
##d28
ff52
6e0
9a8c
0654
38f5
8607
e01
6e0a
##581
f49d
##5be
8107
2fe8
##f0b
0038
##903
4b08
7643
08de
b00
ffc1
ff53
b01
5207
5307
##73d
##70c
##a02
ffc2
4a40
f243
a540
##70e
db08
##d02
9600
57f5
504
a640
a840
a940
a140
eb55
f211
##406
21a
005c
af40
ab40
a040
c1e4
##1ce
a340
##5ba
cf53
a740
ad40
04c0
##96d
a240
ec08
c2e4
ae40
##dbe
a440
##e02
6ff
##7aa
653
##81d
0840
4c4a
60a
007e
##a0e
4ada
##9cd
c900
9b0
1da
90e4
6f40
0a40
636
dabe
5300
9000
64e
##421
##991
0015
583
6d40
ce4c
6740
646
9140
472
9340
9540
0477
9040
##de8
9f40
f00
9d40
07d0
23a
9740
d7f
aac
9840
9a40
9b40
2046
9940
3240
##d88
9240
1013
##b02
9c40
9640
6164
8b40
0f40
0730
0140
##47d
4545
c29
9e40
##986
##102
9440
196
f071
5040
964b
##49e
1440
07a0
1840
8078
54b
8340
0b40
8f40
0b0
8740
7c40
8040
8540
7061
8a40
8d40
8840
7640
##54a
7d40
0540
0d40
8940
6500
8640
6340
8e40
6da
##90e
8440
8140
13e
7340
##827
4e40
1c00
6bec
5b40
8240
6a00
7840
960a
6440
7f40
5d40
7940
1800
0b6b
7b40
7540
88e
5e40
##7e2
004a
4940
1e40
8c40
7740
##414
6040
27f
##928
5540
3b40
6240
6540
7440
7a40
7140
6640
7e40
4140
##415
6e40
6940
4540
3440
3740
4240
##ea1
4740
3d40
5f40
5740
6140
6b40
2740
f040
4d40
5340
2540
4640
##f0d
2a40
1340
1d40
8b2
2340
5140
aee8
1940
6840
4f40
6a40
2040
3340
f640
3f40
2f40
fb40
ea40
3a40
3940
5c40
3c40
303a
1540
fc40
3140
5640
3540
4b40
2140
2b40
4440
516
ef40
5940
ff40
4340
1f40
3e40
6c40
1b40
4040
65ce
3040
1740
5a40
2e40
2c40
##4ad
3640
ee40
5240
f440
e740
fd40
d740
1a40
fe40
5440
4840
5840
##691
f840
3840
2240
f540
42ce
e940
e540
1640
de40
##c26
0e40
ed40
4c40
901
f340
d100
01bb
df40
e140
1c40
##552
f940
ced9
fa40
##f0e
db40
0c40
d540
dd40
##cad
2440
eb40
65b
f140
e240
e340
50a
f740
d940
f240
e440
ec40
483
e840
e040
d140
d640
d340
da40
d240
e640
##d86
5500
d840
10aa
d440
6d7
0086
##602
14ab
##408
41d9
4e3
45e
a900
6c54
f3ff
7770
0fad
6d3
9c35
0fd9
##df5
1007
65ad
##8ad
##731
a82
654b
##895
10a9
##562
##9a1
8902
72b0
007a
5db
abe
6de
78b
##103
##1c5
##9e8
586
0f4b
54a5
27b5
##80a
69f6
6985
1e11
7210
34e
b719
4245
229
76e
026b
5ba
683
2d07
2107
##51d
##f09
##593
5dc
5c6
2607
b5b7
7de
72d0
##f65
183
e83
606
2c07
##5ae
10ab
2507
f06
##d8a
88b
##999
##d2a
ac00
##d2e
49b
##cb8
58b
##d99
##d91
4db
1232
645
f504
f104
786
34b
##dd4
324b
5700
51e
0084
##c21
##172
3c0
a042
4dc
##565
##56d
4542
316
3db
0dc
##60e
57c5
733
2db
##7a9
4543
2dc
6700
##306
##17b
7ff6
##7d1
4d6
10a8
236
312
1f4b
##551
##53d
##f0f
##209
233
e07c
2d6
##522
48e
7f85
4641
10ac
##55e
##f64
##599
##df1
##d89
8210
39b
47b2
00ec
##30d
fde
##80e
8110
7db
5d6
61e
0039
66e
007d
1d6
44e
##118
##ca9
##cf6
0db
46e
##30e
##d76
4648
##df3
0d6
757
3d6
10ad
##516
##9e6
##d9d
ab00
63e
##d7d
##d85
7c0
##55d
##55a
9100
36e
372
##41d
##404
b2c9
596
3dc
##708
0550
79b
1200
##d39
ad47
a800
##51e
c9be
357
133
##58e
##d93
51a
2950
##9e9
0079
633
##1c7
f33
##561
##52a
4846
##d81
##d8d
382
##556
##df9
d8e
##5c5
##9aa
##d3d
02ff
##d08
##dfd
cb0
##70d
e8b
0300
##9ee
533
##815
69b
0021
##548
a500
##555
##98e
##9a5
d00
##9a2
55e
##58a
7dc
07f
4145
##d31
##9ae
##5fd
496
67a
##d95
001c
10a7
7fcf
145
##f03
##fa1
b983
61a
19b
##11d
##9a6
##9c5
##69f
008e
6c6
1dc
72c0
##92a
796
##1fd
##582
71e
##daf
##dd5
##9c4
##52e
##542
##d72
##709
0370
##1b1
c176
601
59b
457
4de
##170
##e31
##dd1
##56a
27c1
09b
##495
7d6
##13d
804
##926
676
2300
##ddd
40a
##5c1
##e0d
100d
26e
69f4
##9e5
10cd
10ce
##9a3
##526
##532
##92e
206
##922
76c3
##17a
##a0d
##9ea
##559
##586
31a
16e
41e
65e7
##e3d
0036
fce
##1c9
445
37f
2907
##199
##1bd
##f6d
15e
##993
a4b9
##546
d554
56e
0388
##9ef
9dc
7b2
232
10a6
##f26
4ae7
103b
31e
##cf4
3ac
10fe
##d2f
6aac
1cb
0064
##9d4
4550
096
a700
8300
8ea
1035
##5aa
##479
##111
132
53a
157
##595
##e3a
##d3e
##f62
4be
5de
45b
3de
9fa4
##17d
##5d4
1150
##4cd
2be
##d97
##99d
8ba
74e
0062
e9b
##108
##f2e
##519
##5f1
##2d8
580
1a00
75e
##179
d8b
0804
##53a
557
5a83
##1f5
bd54
##d71
632
a000
346
##7e8
##d75
##9e1
##5cd
642
35e
0076
436
##585
008d
0648
##5a6
##f6a
##e32
##f0c
21e
396
7c6
##52b
##40d
##5c9
3d00
##d35
##a06
f01
##1d4
##9a9
0658
##493
##90b
1de
##813
##d23
##58b
##50c
##921
##19d
d96
2de
f1e
8ac
##131
##f22
c9fa
##536
25e
b34b
##444
0378
##59d
30a
4ce
##30b
##785
##55f
904
##9ed
##1b6
e6e
##58d
##929
ad00
f29
##513
##4d4
44b
##9c9
##54d
##539
##90d
008a
##9f5
##9d5
0360
f900
##116
432
64a
24b
7cb
##925
##2d4
##e36
##521
96c8
##5f5
##9c1
74b
##525
##da2
0601
##1b2
##431
686
2800
7be
##d8b
##56f
##5a1
##f2a
##17e
##739
##d2b
d04
##d87
##499
##f63
##5c3
##171
##995
345
257
##e35
63b
6b0a
1090
##fb2
b0a
##53e
a86
cd6
##d27
##d0e
63a
##5a5
567f
##d8f
c800
10a5
##40e
##591
0690
##5dd
##541
##9e7
f9b
##476
##b0d
25b
##2d6
##563
13a
f6e
43ff
a802
##549
##da6
##92b
##d9f
##9f1
##797
1ac
##1b5
15b
fdb
##fec
0aad
fc0
532
24e
##2da
##4dd
##4c5
##fa6
086
##515
##f66
##c2a
##73e
##1cd
##4fd
783
##10d
5ce
77f
20a
6300
6183
3cb
00e8
416
##c22
##7e9
7ba
##531
ff08
0075
0470
008c
##df4
##997
##fa2
##56b
0087
##d8c
##4c1
##9fd
81e
##11e
1b00
##7ae
512
9300
##2de
100e
4ff
342
##e0e
##dae
083
5ff
4c0
##b0e
659f
ece
##475
043c
##185
##472
##119
412
712
##535
2ff
a600
##5a9
##fe1
78e
6c0
136
##1d1
##497
##1dd
##2d3
883
1096
##e3e
##514
429f
732
##cfe
##927
b33
872
##528
10a4
##1f1
fc6
fd6
746
a06
##989
##f61
##53f
1092
0d54
##fbb
9db
##d09
91e
6ac
##195
f5e
##191
3be
716
##daa
0ff
##1d5
1091
10ae
##772
1093
0428
##f9d
##5d1
##5d5
10a2
d32
##78a
##99f
5ac
108d
##e39
108e
536
ddb
##115
##d77
e1e
a57
##409
108c
f4e
##c2e
383
##43d
1027
##5ab
109e
##80d
10a3
0074
##826
8a00
##527
0073
##cc1
##558
fdc
3ce
##e09
3ff
0a0f
f1a
##fae
216
##7a2
##55b
##3fd
1900
##cf2
0750
##fba
##df7
612
10c0
##f25
108f
##faa
c06
##567
6d50
0f05
5cb
##9a7
109b
##f21
5000
08e
55b
8be
1095
a6e
##307
##9af
0450
##70b
5104
1c0
##d7b
##d0d
1ff
772
##9d1
##4f1
##77d
##4d5
0150
c9b
##4f5
##7ee
109a
##70f
##56c
84d9
##77e
##5f3
##79d
##fa5
486
##9ec
##5cc
##d84
##d3b
108b
##909
0c05
##5c7
1004
##51b
109d
b654
35b
a950
3a83
##78c
53e
10a1
##439
##1c8
##d2c
##cfa
##471
1a83
43a
572
##1b9
##4c9
2ba
7c54
1098
01f6
##da1
##eaa
00d2
##523
##da9
1094
7ce
##7ea
04a0
109f
67f
10a0
0e05
##caa
338c
2ac
3b2
2b2
##776
##d94
833
108a
14b
##7a6
##eae
bd50
##cc5
3c6
##17f
##564
3b54
9c54
##b09
##9eb
212
1016
301
##58f
##193
e06
9983
##403
##5c8
b9b
##7e6
446
34a
75b
##7a5
##4c7
##d3f
4ba
933
1099
5c0
1097
##547
a9b
##a09
##d73
81a
7066
99b
672
1b2
109c
3ba
##fbd
##d37
##52f
##30f
##f99
##d24
##d9c
629
0091
##2d2
##981
201
e72
##106
##587
##114
07c0
##cf5
##9a4
##da5
##fa9
b300
3150
5d50
0d50
##703
0de9
1087
6ce
##92f
##df8
8ff
##597
##435
c3a
1d50
##2dd
7d50
##98a
##173
##d78
f96
##30c
8d6
6150
1089
##41f
0068
4d50
350d
0418
1806
##ca6
1ce
2ce
4150
e8a
##d7c
##dfc
4950
##fea
##137
43e
##7b6
##537
2d50
85e
7550
##d07
2865
3950
1550
6950
##9c7
2550
5550
5150
##43e
3550
38e
##47e
e9c2
05b4
##920
##8d4
e1a
07f0
f048
##cc9
7150
##543
d6e
5950
9150
##2d5
7950
d33
1950
0ead
##fb6
1088
##ca5
00aa
b150
ed50
c950
2150
fd50
0031
80a
##9a8
##588
8d50
6b2
##982
##cf1
##4c3
c36
##4d1
8db
e33
f550
##f2f
##f6f
##fb5
cdc
e950
0950
e5e
##cae
9f35
0061
d9b
##1c3
2cb
f950
1908
a150
8550
##762
1a61
7183
##923
##60d
48b
##197
bbe
8950
b3e
44a
6ba
##737
006c
##568
##5af
cdb
##10e
4cb
23b
04b8
e550
##7a1
08a
12a4
##20d
dd50
##ea2
e150
##1cf
##494
##144
a550
e96
##779
a1a
80c9
d550
53b
f150
c550
##ea6
0072
9950
2045
ad50
edb
9550
2112
##d74
##73f
8167
##473
##fcd
cd50
d150
328c
a300
##fe6
b1e
ec59
703d
b550
1086
e4b
c6e
##7b8
549f
fbe
00d8
8150
c150
59be
b000
0052
6e00
##73b
7c1a
##f23
##ea4
8f00
9d50
86e
8b54
8b00
12c0
b950
##584
745
##5f7
94e
##fb1
fb2
##53b
13b
##e3f
##799
d950
##98d
73a
##f2b
a33
a1e
##11f
1be
##da7
##c25
a442
9a00
##194
##f27
1706
89b
6cb
##ea5
##9f8
a400
91a
a100
957
08b
##54f
0a4b
96ef
##1f7
##fc3
##7d4
##2d1
005f
026d
8d00
##40c
ed6
0092
0b98
##f91
##5c4
##f67
005d
##177
936
43b
d06
3f04
9e00
546
##7ed
ddc
##9e4
##fb9
##fe2
95e
a0a
9500
604
9c00
##fee
a490
##e3b
d1e
a200
##738
##cf9
##fa3
9900
0063
##fc9
##13f
##1b7
##59c
##518
##1bb
##55c
##1cc
efec
101c
ae00
38a
8e00
##d34
66a6
##19c
b1a
9f00
##a03
##7bd
##50d
##544
1906
9400
##538
##cfd
c33
70ef
0e4b
##92c
386
##b0f
##1f3
5056
8c00
##5a3
##9f7
##e37
a5e
##da3
1192
c1a
cce
f86
7d06
78a
bdb
974b
5796
##5a7
##98f
##113
8ce
e196
a32
d83
48a
##a0b
##7b1
##7c9
e4e
##524
eff
##534
edc
##134
##766
##76d
bb00
##f95
2900
##f93
4c6
0b04
5086
38b
9f06
##19f
a4e
04f0
##fc5
b72
##d38
##985
fac
##b03
529
0085
9b00
##795
a96
69c8
##69e
9800
00b4
##d0b
00b2
##4f3
f4b
9892
8370
##893
##d03
##e07
2007
##1b3
fba
0071
348
742
##608
58e
##765
10af
##b0b
##506
077c
##793
d1a
0c6
729
0098
2503
##4f7
##924
9d6
0017
1504
e9c8
dd6
##7e5
338d
4e00
8800
7d7e
2f54
f604
##781
88a
87f
00a4
##1bf
##17c
6486
545
9e04
##20e
##d3c
##187
a5b
##a07
##52c
30bd
##594
b6e
##178
7fc8
0065
d57
##81f
ef69
205a
##ca1
##40b
a4b
0066
0cb
9d00
##9f3
##2df
b57
##771
c5e
84e
##7e1
245
10fa
e01f
246
8de
9d04
db04
1085
bd6
##49c
##69d
##7b9
##cc7
eac
##5a8
8700
##987
e57
1054
##50e
1c6
1005
972
##821
##40f
e803
##777
##413
e904
f32
##407
##fe5
##994
f5b
##f6b
b5e
896
fa04
916
fcb
##53c
e45
93a
3d7f
401a
a0bd
a0ea
f36
801d
##c2b
857
##c9d
bdc
##5a4
427f
##1bc
##899
##d0f
68e
7707
1d7f
ecb
e070
90a
##ea9
7807
##b07
##f28
306c
##a0f
97f
68b
f62d
fd7e
##e38
68a
c57
##174
fc78
a01
b8ca
4883
##734
##dab
8412
##e0f
b09d
e0a
442
9099
1011
c07d
8881
30fd
c42
996
1083
6a86
c32
bde
c12
6eeb
7084
##35d
##e0b
ab2
##7ec
100f
10b0
00c8
006d
##4c8
2c6
##b0c
##fed
9b8d
##7ef
f09c
##8c1
##da8
##693
f3a
0094
2500
e5b
8cd1
##11b
4b42
29ab
552d
03d8
23e8
##fb3
9d7e
d5e
##1f8
##e0c
bd7e
812
b4e
a0b9
10b1
##7cd
2700
6d00
6285
204
119e
ea77
0c06
##1f4
10b2
8058
##791
ca3a
0047
0019
##cc3
532d
8681
00a8
##e03
##1c4
72a0
##5f8
003e
8864
##f24
ba00
102d
5be9
d0a
e104
004c
##c93
##a0c
##203
c96
85b2
##90f
##ea7
9a8d
d5b
##e3c
3100
58a
##4cc
d0ec
bba
0854
##699
##138
07c8
##9f4
dcbf
0667
##907
b96
##fab
##d0c
##11c
100a
8088
##cfb
ed54
bb2
b32
##43b
d4e
##c28
##8cd
c72
##7a3
94b
##90c
##4c4
0117
9de
##da4
00e4
##7a7
c88b
##7bf
##8c5
bc0
##5f4
5600
8600
##109
##fe9
9ac
##609
##2db
1d00
##7af
6ecf
##faf
##184
95b
dde
1032
##54c
0093
c16
d4b
e12
f7f
85b
3aa4
##474
##437
0605
##715
c01
##1b4
10b3
f72
c4b
##c27
cde
##8dd
ec54
##47b
b4b
845
##c2f
##cf3
##509
##77c
678d
##77b
de2d
##8d5
##7eb
c0a
0900
##f2c
10d8
06f0
f16
##f68
a12
e94b
3700
aba
##c95
8500
e870
a36
##fc7
##503
92eb
ede
92cf
0049
##7e7
cc0
##7ab
0067
8c0
##eaf
##8fd
6903
##48a
##eab
##891
##7b3
##fbf
##fa8
##8f1
##7c7
##98b
##7dd
1002
cff
c4e
10b5
##773
004d
006e
b36
10b4
eb2
816
##f97
af00
f3e
fc00
ebe
006b
e7f
##3cd
##cc8
e46
983
##f6c
##fc8
##8c9
ae52
f83
98e
8ddc
b16
##fb7
0a27
##fa7
a16
bff
004b
10c5
93e
f500
##47c
##ea3
508b
9ff
a72
b01d
##7bb
d72
10b6
##cab
##7a4
b12
##489
##c23
##fcc
e16
##486
##3c9
912
84b
0602
##98c
d12
##3c5
1801
##ca3
54a
11b1
24a
##3c1
1006
403d
a7f
61d3
c7f
8064
74a
eba
##778
dac
0051
##7d5
52d9
d01
##4f4
##7c3
1084
a45
9ce
a3a
##fb0
##395
10b8
##359
0621
##763
10dc
##f9f
##885
##784
##695
f309
bac
b7f
1064
3400
##48d
10dd
##cf7
##814
##774
0069
b29
0a1a
b41b
1010
##ca7
cac
0cea
##984
##478
0790
10b9
f05c
##7b7
10ba
10b7
9c0
##e34
##7a8
6c00
c300
2761
10c6
##fe7
9c6
104f
##988
aff
0a4e
242
bfbe
542
f12
##20c
c309
a6c0
##cfc
0606
10c2
06fa
a3e
103e
10c3
005a
##89f
##4f8
1038
##79f
0608
0603
10d5
##ea8
d3d3
##caf
107e
##10f
b100
8cb
##82a
b200
105a
104d
2000
##ca4
##3d4
##438
061a
061e
1062
060d
354b
2d54
##7c8
10c4
06f2
1065
0106
##8d1
fa00
0609
##8c3
c700
c400
##825
dff
b908
e86
##f9c
06f1
1050
##391
06f3
6f00
101e
ccb
1600
c3e
##cc4
1052
0338
1043
298e
946
06fd
10de
##7cc
##60b
0604
##cf8
##82e
##feb
d36
10bb
9cb
06fe
846
06fb
103d
16ad
1009
##10b
##767
06ff
##603
##78f
107d
93b
06f9
##434
060e
1066
06f6
0303
104e
06f5
##ca8
##787
##89c
10bd
d3e
10c1
f3b
##60f
061d
104c
10c7
10d4
1028
bc00
##10c
b3a
##7c4
1015
10d1
1082
0301
fb00
105d
c8e
10cc
103a
060b
06ef
0ab2
0097
10e2
1019
##20b
7bf1
10be
1076
060c
06fc
1290
d16
101a
1036
6800
10ca
e29
062d
10e3
03b0
0607
1060
##f94
06f7
fe90
064d
1026
063d
0046
1039
1072
##20f
03a8
##8c7
f8b
##39d
1079
6f54
##485
102a
##fc4
10d6
103f
100c
##c97
107c
10da
0611
0651
065e
101d
1045
004f
4617
bcb
065a
1042
##399
1056
0614
106d
0ac6
##76f
10d9
1037
102e
##c9f
1071
##43c
##822
06f4
03a0
10cb
0b00
##487
##806
1044
1075
10bf
106a
1022
5f14
10d0
b004
##481
0624
102b
1029
be00
1017
7f9c
06f8
10d7
10e1
104a
11ef
1069
0616
1691
0642
##794
0a1d
##507
10d2
0662
6b00
c208
10f9
##fbc
1047
105e
c566
10bc
1031
1061
f8e
1067
062f
##fb4
0663
1280
66bc
064e
10c9
9f46
1081
b04
1057
1059
1051
1023
1055
003c
##697
ff78
0656
0f00
##76b
10cf
107a
0666
0655
1046
1034
1041
##385
945
0665
064a
103c
0612
##3c3
d8a
7ffe
1033
0659
062a
0652
0059
0653
1077
bdc5
bce
a3b
0645
##79c
0636
0619
065d
0625
101b
106e
105f
063a
1074
0622
1078
101f
9491
0630
0661
060f
0635
1063
10c8
1025
106c
1073
10df
1030
0629
ec98
3f00
##809
1048
0638
7000
f45
c5ab
##c85
105b
102f
107b
c83
106f
065f
0631
104b
106b
1020
##60c
##7ac
10db
##fef
0c00
0646
##c2c
063e
1024
b400
0042
10d3
a83
0095
e4a
1068
011a
10e4
1003
102c
1018
0641
0660
0610
##c24
##3f5
064f
1070
0639
0664
##3d1
0626
10f5
062e
d46
c8b
0770
07e0
064c
061b
e500
105c
##7bc
0617
062c
5691
0615
065b
a29
10e0
5c00
1058
10e5
e04
d3b
699c
0632
9691
062b
0649
10ee
1700
0633
0657
10f6
0096
##fe4
45ff
0623
0a32
063f
f200
ea00
061f
a46
0644
##788
a8e
0ad7
829
063b
b45
0a8e
##7b4
0613
##50b
d29
1400
0634
0643
0618
##7e4
0637
0a6d
b500
0627
c3b
0c60
f46
0204
064b
063c
c200
0af9
0620
c86
061c
065c
10f8
0f52
a04
bc6
0041
f1fe
b83
10fd
0720
a45f
0628
##3d5
##8c4
10ef
d86
10e6
cc60
d691
e42
##76c
##3c7
ec6
4c60
a4a
2200
d45
0710
##804
##894
a8a
##3f7
10f7
b700
0760
0a69
##718
a8b
7500
02a6
10f2
07b0
3a00
5b00
10e8
10fb
2b00
0ac5
##69c
##50f
b600
##887
##3cc
f8a
##3f1
8c60
e400
##764
10f1
0668
0a5c
10e9
10fc
0a2f
0490
8200
8100
c04
6600
10f0
2f00
##8f7
12f0
##768
b800
0e00
10ea
1300
10ed
0d00
0405
4c00
b46
cc6
##393
5105
7b00
7300
##808
12b0
##35f
0aac
c8a
e750
4700
12e0
5800
b3b
3000
10ec
2854
10e7
0ac4
7200
10f3
7400
cf00
c45
1270
3600
10eb
##48f
d9c3
##397
1e00
1260
c46
5200
12a0
1230
12d0
4400
00d3
4300
10f4
##694
##b85
2400
b4a
7635
5d00
##8f4
##3c8
6200
ff54
06e8
fcdc
3900
3b00
7700
3c00
4600
16a0
##8f3
00fe
f100
6100
1220
0e8c
0053
7e00
b064
f000
0009
e900
5a00
4f00
f42
4100
5900
0480
c5b5
b5a2
7100
f600
f4a
7a00
1210
84a
54c0
7c00
976e
fd00
0044
a2fc
cb00
358c
7f00
##8c8
7d00
3f4b
b900
fe00
6d54
e100
ec00
bf00
7800
90e8
4900
1500
5f00
d300
##3c4
7ff4
f300
d4a
2a00
2600
0056
c500
c600
d500
d000
842
00f6
1f54
2c00
5103
2100
e300
1703
2e00
3e00
c100
cc00
##b87
00e2
e200
942
0222
4c54
bd00
##387
29a1
ed00
##8f8
c4a
03b8
df00
f700
d700
8c73
##3f3
da00
##c94
##374
03c0
288d
e700
ef00
0350
94a
9d54
009c
d200
ca00
dd00
ff4f
##488
d600
0022
f800
9ec5
2801
##39f
a954
e600
adbc
##48b
2d1b
272c
d900
2029
28be
b42
3f4f
29c0
##c87
e800
##82f
0698
7f4f
##884
2805
688d
ee00
06b0
06d0
ac20
a42
0026
e88d
4354
##888
bf4f
eb50
0025
##823
6554
##35c
2754
bf54
c5bd
0223
6254
009a
1bb9
f02d
b754
e354
06a8
066d
d42
a88d
0011
##394
0057
f001
066a
0669
a601
96c9
04d8
02c0
df54
##807
06e0
f2a4
002b
abeb
##828
f217
##80f
b928
00e5
##818
00fb
066b
4a89
3f54
00a1
320f
0e54
0099
1454
003d
8c54
8e8
0fc1
066c
2808
06ee
2802
0033
##39c
14a9
##c84
0128
##80c
8454
b81f
7012
caf2
2454
328d
##80b
0688
5007
b280
320b
9580
700d
009b
273d
0460
4f54
0267
0678
280a
002a
500d
##82c
##484
##384
40be
009d
ffb8
50ca
281f
4546
b401
283a
284a
009e
bc50
00fd
284e
2850
2872
092d
##3f8
50c9
287a
280e
704f
4066
0029
2826
287d
281a
281e
280d
fe88
0043
##824
2861
96c6
2825
2832
286d
285e
23ae
2852
2862
509e
2798
2836
281d
002f
00d1
2815
2809
2859
d0ad
##3f4
0528
286a
000d
304d
280f
03c6
284d
04b0
2819
8b50
0d26
16be
06c0
3096
285d
2856
a8ff
2846
2876
5032
7c2d
2833
4a08
50bd
283e
0430
283d
2851
180d
f0b9
2816
6d70
2842
4d26
2730
0570
286e
##b84
282a
2827
4a81
2821
2d26
ab11
2811
a5ba
284f
285a
286b
70a3
409e
50bb
0983
0568
12fa
2814
2813
2849
2866
54bf
2835
2855
282f
6581
2845
2871
2806
11c0
2839
447d
2875
7780
0d22
e8dc
282d
2877
2844
2820
285b
657d
2879
287e
2831
7991
2016
283f
9b9a
0de8
4141
2869
2829
80f8
282e
026c
6098
2847
407e
64be
2803
7f06
415d
3dc0
2812
05c8
b301
402d
2863
2857
57aa
285f
285c
2841
2817
282b
6fde
2853
2810
4645
2867
118e
1708
b02d
282c
c589
dc9d
6b41
283b
1d26
30d2
40c9
70d4
2873
286f
287b
2822
600e
287f
f0a5
2823
2868
27e2
70be
30d6
280c
2848
7f27
2860
799e
2858
283c
0c0e
20b6
6d18
5c2d
20f2
2207
a14e
0510
281b
880e
2828
ae9b
281c
b0d6
40d5
8ef5
0420
b072
2874
e209
00ed
2843
2837
3cc0
286c
2878
1bf6
f0ff
280b
58bd
284b
72f9
bc13
284c
c0b6
3895
2870
806f
072c
7e06
2818
270e
660e
2864
2804
00d5
2824
2834
60a9
009f
##b88
3047
209d
2838
faaa
ad25
201b
1f0b
287c
9a1b
986d
3a9f
4ff5
2830
906c
d0ed
e032
46ff
e0cc
04e8
804c
1f19
472c
20ed
00a3
9e06
5862
429e
409c
2ff5
6897
1319
00b6
18ff
000f
00fa
00b1
4881
a08d
00eb
b079
8d25
52f9
9160
6bf1
f0ac
3bf6
f25d
d1f9
fd28
b406
4027
8689
1c26
8d79
00a2
8bf1
17c4
f607
00dc
369f
908f
350f
c29d
119a
e08d
ca0e
70ab
5154
c052
001d
8d21
1408
00e3
5fc0
e08e
a065
0ce8
8308
9095
ce8b
ed21
bb17
c00d
16a4
a092
7633
c790
00a9
00ab
8827
7f22
9c2d
a825
abf1
0410
78b7
00ad
d2f9
90d5
b90e
e8b9
981d
00a6
00bc
bd26
f2f9
18df
2b4a
cb10
88bf
483b
c89e
3824
67ac
a86d
7e28
b0fd
d629
b629
be26
4a45
74ce
cd25
80c8
d8b6
d8ed
802f
c0cd
e0c5
a81d
a589
e051
001f
c0ec
cd21
dd90
92f9
896d
904f
a8c2
1c48
d0cc
0383
2954
d044
7260
ef64
a0a8
be28
ce87
1da8
580c
497f
516f
970c
9084
906b
94fa
5827
196f
9e25
0d88
fc51
901c
acc0
9dbe
e836
00c1
d815
2983
d415
a198
0024
0354
a414
808b
d0d8
a03b
d03f
e4db
ecdb
04e0
04d0
a0b1
9cf4
ef7f
88ef
4c9d
2d08
c0e3
7a63
b1ce
2202
21a0
808c
00cc
62ed
8118
950c
9654
00a7
aa05
ce49
f404
c860
9e28
b843
337c
00ba
00bb
cc17
001a
a858
d813
6dc0
b986
7ce3
e3be
4548
7f7b
082b
d09c
00b3
00a5
0014
09e0
00dd
894a
58ff
00c5
cc20
00ae
00ce
cea1
91fc
00ca
00f5
2294
4a18
de08
00bd
0363
00e6
84c2
00f3
00f1
fff3
6901
9f7f
00bf
80c7
d805
00b9
00f4
ef74
88ce
0018
00c9
00be
c291
00ac
00c6
00e9
0013
3cbe
00c4
00ef
faff
0afd
00ea
6f50
8f54
00b7
48ce
1a4b
32c0
27fb
0376
2901
00b5
00e1
003b
0a01
fbbb
08ce
9add
00f2
4845
00f8
65b4
bb39
00c3
dd4c
42b4
d750
5d83
29d8
6a05
00d9
00af
00db
1bd9
00c2
2905
00cf
03e1
00f9
c8e0
00ee
2a68
c8ce
8e84
1108
654a
00c7
a82a
00d6
001b
683c
80c0
5421
4646
00d7
00cb
088a
00da
1699
00cd
2380
00f7
16a5
00e7
6902
a97e
4a54
8c01
1694
2980
3aad
0f50
c17b
c314
46c0
9067
0390
eca9
298f
03cd
142f
7aad
290a
0290
2990
11d8
4a46
7b89
89dd
faad
5b27
baad
0a06
d308
50c0
0280
7bc3
271f
71a5
fcb8
0283
03d1
5097
1f90
d352
57ce
1f65
6432
e016
03ce
dfec
5f50
1183
0380
05c0
fcc0
4ac0
f750
3750
036e
f05a
052e
5b50
4f50
8b1c
03d2
5c11
f294
1154
03fd
2f29
4644
6fc0
0542
0367
aac0
2952
fdc0
11b6
2987
29ad
4350
8180
7350
821a
6ec6
cf1a
2902
1105
03de
4750
0882
11f7
0272
##fd5
01ff
cac0
43c0
0af5
29d6
7983
af50
4a01
df50
7b08
20c0
1f50
299e
c750
59c0
03d0
1350
3b50
2997
03d5
9850
08c0
31c0
0dc0
03fa
0254
3ec0
03d4
ffe0
3350
2350
a5c0
d654
2b50
5dc0
5750
36c0
64c0
2906
7750
6350
2dc0
29fb
7b50
119d
03f9
583d
70c0
4b50
7f50
30c0
29c2
4ec0
1dc0
02b0
3ac0
29d2
34c0
1750
29ce
03ea
c350
2f50
1b08
4dc0
ef50
6750
03f5
03f6
dcc0
29ec
03fe
ff50
3f01
c61a
03f7
fb50
7ac0
65c0
03ca
0312
15c0
35c0
0220
294a
5350
faf0
1b50
29d4
41c0
3f50
5bc0
60c0
1ec0
2942
8f50
42c0
49c0
ecc0
f1c0
bb50
03d9
61c0
03e8
bbc0
6b50
6cc0
9b50
71c0
29bd
03ad
29f2
29c6
03c9
03ee
55c0
39c0
03d7
47c0
ac54
f0c0
29f1
d298
52c0
03d6
28c0
2cc0
37c0
298a
b750
29da
f6c0
63c0
09c0
a1be
03e9
75c0
1ac0
07bd
21c0
95c0
62c0
4854
0216
29df
03da
16c0
03c2
2ac0
cf50
19c0
2969
45c0
297d
##fd1
69c0
deba
b1c0
79c0
ab50
0b50
38c0
88de
c4ce
4fc0
293a
44c0
4470
4023
03eb
25c0
29e6
2935
03c5
294e
51c0
03df
40c0
295d
a750
03dd
2993
03fb
2750
29ca
295a
2966
29b6
03ed
7dc0
03e2
66c0
1bc0
9f50
bcff
26c0
b5c0
2982
29ae
f9c0
297a
293d
11f6
db50
c9c0
5ac0
03f2
0352
29ba
2932
2986
29f5
110a
5cbe
03cf
3007
29d5
87c0
2911
73c0
293e
034a
67c0
03c1
f5c0
0adc
53c0
29e8
036d
0349
0ac0
03e6
0325
b1c5
29cd
2975
294d
2ec0
78c0
76c0
2999
88c0
e9c0
8750
29be
29a6
29c9
23c0
1fc0
03cc
29aa
29b8
bf50
cb50
03fc
5454
fec0
29ef
5ec0
2945
29fa
ffc0
585f
29a9
56c0
24c0
034e
03e3
2912
9dc0
9750
583c
29ea
48c0
2976
2962
c0c0
296d
0fc0
edc0
291e
22c0
29e5
b350
3bc0
7bc0
03c3
9ac0
03f3
2972
e350
2956
58c0
295e
3fc0
299d
99c0
07c3
290e
2963
035a
0181
8350
1844
d5c0
dec0
0366
6ac0
5cc0
4bc0
2961
11ff
29f9
d350
90c0
4745
9350
29eb
2949
bdc0
290d
2909
ff80
f6f5
33c0
91c0
29cb
e5c0
e4c0
a350
0356
2959
2998
297e
0344
296e
29e1
0316
adc0
a9c0
29f6
29e0
0361
d1c0
11b4
2fc0
18c0
29d1
2951
29a5
5797
b0c0
03e5
29ed
2992
27c0
8bc0
c201
03f1
14c0
a1c0
2964
2946
68c0
2991
e8f9
29c1
cdc0
03ef
2971
29a3
2996
2989
4cc0
fac0
29de
13c0
0355
29b9
29b2
17c0
297f
f350
0377
29f7
29e2
2981
0362
7ec0
03f8
03c7
b2c0
29fd
29b1
0205
0351
9ec0
29d9
ddc0
11e6
c4c0
2931
e2c0
e3c0
c3c0
2947
03f0
2995
034f
57c0
1cc0
295f
2bc0
2941
e1c0
6bc0
2955
2977
2985
8cc0
29dd
29a2
29fe
29ee
29c8
29b3
03e0
29b5
299f
2965
03d3
033a
29c3
4a0a
8ec0
77c0
06e9
03e7
d0c0
29b0
0ec0
eac0
2957
e826
8073
bec0
0342
298d
7cc0
c5c0
294b
d9c0
74c0
b6c0
2979
2936
27a0
2933
d6c0
e7c0
278c
8dc0
f3be
29bf
29d7
29cf
83c0
2967
29d0
039a
033d
81c0
032d
afc0
034d
abc0
2939
29c5
29e9
29db
0396
03b9
bcc0
8fc0
7fc0
296f
dac0
0cc0
eec0
82c0
a7c0
29f3
29c7
29bb
7886
e0c0
29a7
8c37
29e3
03ba
f8c0
0345
e8c0
0357
29dc
03ec
11ee
29cc
86c0
3286
296b
02d8
29e7
1127
297b
dfc0
0bc0
a2c0
03a2
c301
0326
296c
5ae2
03c4
293f
2973
296a
295b
c1c0
066e
2970
1195
294f
03dc
03bb
033e
ccc0
f3c0
03f4
f4c0
bac0
03aa
29a8
032e
8ac0
29b7
92c0
b9c0
2913
1102
c8c0
03bd
93c0
9bc0
89c0
29d3
299b
298b
0373
4a7d
85c0
2978
03cb
3183
e827
2994
a8c0
a4c0
0381
0314
2958
ac83
c2c0
d4c0
0379
039e
0392
29af
fbc0
4e57
297c
bd20
84c0
aec0
0483
96c0
d8c0
b8c0
0341
03c8
0332
2937
11f5
0346
03ae
f2c0
dbc0
293b
29f4
d2c0
2968
c6c0
03a9
295c
037e
038e
2953
29bc
0327
03e4
ebc0
2944
2908
97c0
29a0
2974
2943
291f
290f
b3c0
98c0
2984
4108
29f8
2934
29a4
d3c0
03b2
9fc0
e6c0
03b1
454a
cec0
29e4
035d
29b4
504b
bfc0
c5a9
9cc0
2988
c7c0
0353
0391
0317
039d
cfc0
29c4
a3c0
29ac
2948
94c0
8641
03be
b4c0
032a
294c
0329
b7c0
0398
0331
29fc
0339
2938
290b
293c
03af
0347
0335
653f
03a1
edaf
03b4
031a
290c
2960
efc0
037a
037d
03b5
d7c0
29f0
2930
0343
2731
038d
0319
2904
f090
299c
cbc0
03b3
035b
29ff
f331
11fa
0395
2c5a
03a5
034c
e548
03b6
298c
7058
f7c0
035e
0375
baf3
033f
5e65
036a
0369
0382
031d
c298
2910
8101
0315
038a
bd11
031e
0385
039f
2903
0337
0372
0330
02f0
03a6
0333
0336
0348
032b
0386
0393
038c
0324
6f6f
033c
0371
119c
06ed
1786
5de0
0399
03a7
0389
0365
03ab
0397
9055
291d
0321
033b
039b
11ea
032f
0328
034b
036f
03a4
0322
03bf
010e
0334
03bc
0313
0323
11fe
038b
1116
037f
0387
03a3
11d5
4e4b
6f6d
037b
031f
0230
035f
0318
bd01
036b
6982
2925
06ea
0374
038f
2919
2921
06eb
032c
5009
b1c7
0359
031b
0675
1486
11d9
0364
292f
0320
11fd
c5b1
6fb7
96f6
0260
02d0
1190
081d
3f8c
ac01
1193
1145
039c
031c
11dd
5101
4a0b
03b7
01a3
035c
e25e
291b
0394
0358
85d2
11e8
02e0
ac02
acd7
291a
06ec
1149
4a02
11d4
2922
2920
11f2
11d2
03ac
0368
0384
1180
037c
292d
584a
69a1
036c
02a0
114d
0c31
11dc
4345
11f9
2917
c785
2923
2916
17d9
bae0
11e5
adc3
1143
32e8
2050
11da
0270
a633
292a
114c
e170
3208
0850
11e2
1142
6f67
2918
114a
4a44
0469
291c
ac05
50be
113e
114b
11ed
89cd
f97f
113d
2926
11eb
7025
1146
454f
6f01
2915
11e9
a3c6
27d1
11fc
3230
2924
11a2
11db
11d6
4554
9897
1144
7680
1601
323a
0e96
292e
020a
2914
7fc6
2927
2929
11f4
11f1
3254
a593
48e8
48ad
11ad
11e3
11de
2928
6dd7
1495
11fb
1141
14ff
11e1
abbd
249e
11e7
118c
40f7
0683
454d
1109
1147
11aa
7fe7
0275
73b8
75be
111a
1132
4a14
11f8
117e
11f3
40e5
92c5
8cd3
111e
11d3
292b
1701
4445
7a78
02ad
ce9c
1148
1899
57d1
11ec
1106
11e4
028a
8a01
11d7
110e
99e2
113a
0311
11df
63fd
113f
06d8
7863
4a52
6d01
110d
4a0e
11c1
b783
11e0
f7d6
e289
0baf
1103
02b8
0277
7fa1
02fa
c2f7
4945
110f
9939
11ae
11d1
1139
4a3a
11ce
4a4e
a90b
3283
1111
111c
c658
c311
11a9
afe1
11f0
11a5
3252
11a6
4a4d
11a1
183f
4a15
7665
a085
113c
11cd
02f6
1135
112d
9e4a
02d5
1136
4a1d
c133
4a4a
114e
4a36
97a9
112e
4a2e
e2be
114f
ac80
026e
c651
11d0
14a1
d0be
498c
8183
1119
1197
027a
110b
292c
1129
111d
7054
4a55
4a16
1196
025a
5701
1122
454c
4a26
06ad
c954
272e
1199
4a2d
06c1
112a
4a41
d803
02ac
4a31
1125
1cb0
4a1c
1198
1104
4a1e
4a06
1126
117f
0278
488b
b9e0
2d83
1114
4afe
4a07
4a3e
0583
1138
1117
1166
454b
11cf
1110
b0a0
980d
2283
118b
4a09
02fe
d68b
02ca
0271
7001
4a3d
118d
06be
112f
4a22
0289
1112
4a2a
027e
111f
0183
113b
06c2
4642
115d
1107
0266
be8a
4aff
11b5
1131
02c6
11a3
649d
1162
44ff
4a1a
4a21
2675
0298
4a11
0f01
11a7
1121
06c6
3201
4a12
5789
3d83
4a4b
02e5
5183
4a4c
1133
6c69
0282
0154
4ac8
11ca
02a2
4a23
110c
020d
4a35
454e
4a0d
11ba
11b9
9d28
02ce
4a47
1115
1134
1185
020c
1816
1168
4a25
3205
02e2
1151
0206
6f05
6ef0
1137
4a0f
023d
4a42
115e
96c3
0281
112c
d5d6
858c
4018
cd6f
1118
11bb
0279
4afa
0251
0f9b
0293
45e2
4a3c
9b9d
11c3
06c4
4a39
1113
02b1
4a43
d324
c27b
1194
4a37
119b
4a51
4a19
1130
fd26
0276
117d
ac90
06c5
4a4f
11b8
1156
117a
1120
116a
ac4e
ac50
021d
b501
4a49
11b2
1f43
112b
4a3b
4246
02a9
8076
119f
029a
7671
02d4
4a29
4afd
11c6
1d83
4254
02e8
4a32
4a28
e089
6e74
1152
7d83
8c14
ac42
11cc
8acf
6f35
02de
11a0
5054
cfbe
111b
11a4
4a3f
11af
6d83
148a
4346
11a8
02c1
024b
33c3
51df
4a30
dc90
0212
024e
5583
029e
06c3
1155
4a17
147e
0259
4a13
115a
0265
023e
026a
310a
081f
7031
02f7
02c5
1191
1b86
312e
0228
0295
3606
4a1b
5450
02bb
4a48
027d
022c
0221
4a2f
be49
0294
024a
4083
1161
0245
1172
0217
116e
4a33
89c4
1159
02aa
8f01
4a53
0262
4a27
11c5
0231
70b3
02a1
11b3
43d0
d802
02d1
0285
1165
4a2b
02bc
4a0c
7b01
4643
02e9
02a7
0146
4649
4afc
06bf
0246
1123
7b86
4a03
3f98
4a1f
02ba
5b54
ac4d
0237
0236
0292
025d
11c2
6ffc
02d6
11ab
1171
1167
163e
1124
02bd
0242
0207
0880
1128
025e
117b
149b
4244
5354
329d
02ea
0273
11be
fe01
11bd
1173
c310
6f73
1160
1186
b305
ecee
4a38
02b2
bd83
2c21
02ed
116d
02be
02b6
0302
1176
4a04
4a2c
02e6
1182
0297
0296
028d
02a4
1179
1163
4547
02f5
2ebe
0249
02b3
1175
022e
02d2
6354
0264
181c
e72e
0801
6f6e
02f9
0214
0269
0229
02fd
ea83
028b
4afb
dfbb
1181
02ab
1157
11c8
4a20
11b0
502f
5301
636f
02ae
02c2
02c7
02d9
ac52
ac4f
4a10
021e
9601
022b
6dc2
55fd
63e7
ac49
0401
1153
0554
11c9
fd83
02f2
aa54
027c
11b7
02ef
6964
4754
f405
1184
115b
4a34
118a
0263
02c9
5554
11ac
0234
115c
3ebe
eea4
0215
1158
023a
6f83
9d83
1169
11cb
ae1f
024d
0287
115f
9dc3
02e3
02cc
1354
028e
029c
020e
0244
c183
029b
5011
02dd
02f3
118f
0219
029d
e271
0238
1a54
02b9
4ae8
116c
e276
0255
5080
ac0a
7bb0
02bf
0209
11c7
02d7
02b5
02b4
71df
02dc
7376
696e
0a05
11bf
025c
3a69
4442
0288
0261
3908
ecd7
022d
4be8
4de8
acad
4a24
ac45
0501
9701
653e
0256
3783
025b
02cb
1189
02df
ac43
7b54
1603
022a
a911
028f
02c4
025f
1187
7d54
5001
aa83
3f06
0286
1177
2308
0233
0235
116b
7654
ac51
021c
117c
9990
021f
029f
0247
8879
32d8
02a3
cb98
3708
02cf
1178
6454
11c4
313a
0299
02f4
0291
1b83
1479
02d3
7005
83be
7b6e
993c
1188
3376
5005
02c8
4805
acd3
7158
ac46
0211
3954
4d45
1164
026f
0218
02fb
28f4
1e80
9501
02ec
0476
5083
7f70
0241
ac48
2354
7d39
464a
5045
02ee
02f1
0232
0a83
7783
0248
02e1
023f
fc49
02c3
116f
f70c
4a7a
f86f
0239
02cd
fc01
02eb
7580
4ce8
5d54
020b
4647
024c
ac16
55fe
63bc
dd83
f201
6754
023c
f083
1170
9790
02db
4746
6d98
7083
ac47
49e8
7601
3c54
1854
6483
9002
3054
1554
021b
02e7
1e54
027f
4954
0257
0225
ac12
02e4
ac53
5b83
55fc
fa54
056a
0226
b063
01d8
ac92
0258
6f0a
1174
df3f
637a
06d6
028c
02fc
4ee8
3454
d963
6431
7954
4045
11bc
02f8
0253
5b01
1383
4454
010a
ac41
6965
1a01
ac66
aa01
0696
3d54
0224
f07c
3a54
3154
4e54
3983
1954
6954
01d6
0c83
8354
2383
f054
6b54
13e4
2b83
ee83
ac3f
ac44
4154
0103
7754
4d83
02a5
02da
4549
ac08
1602
5ae0
1783
6383
3e67
7e54
656e
4283
16a6
1b54
0213
0b54
5f07
148f
2f31
0268
027b
e89a
0252
4d54
06d5
5983
1e83
06b8
010d
f4e2
0243
0a54
c083
acea
6f02
ac1e
6683
0284
0105
3554
4946
ccec
ac3d
6054
0227
2154
acd6
4544
b154
7554
7de2
ac72
6e01
5954
5754
7254
676f
d483
3483
6d80
e895
1d54
aad7
3c06
acc6
ee54
acde
06ce
6283
6154
0670
02b7
31e0
023b
c354
3754
022f
4383
5654
ac5a
5f54
2b54
7a56
7a88
987b
3083
4e01
9183
7080
272b
9783
01e8
2654
1583
4701
1983
6fd7
d783
ac4c
1f86
0e83
f654
ac6d
4583
f6de
0149
2254
046d
a565
fc54
9803
4e83
ef8a
7683
7c83
d983
0190
55ff
7011
146d
02a8
5e54
7dd7
4054
4af9
2a54
e154
4983
fb01
0274
a583
024f
02af
5616
4b54
bc7f
3583
4783
d9ce
ac03
ac4b
0486
7454
ac96
7154
3854
ac1d
2e54
052f
49f0
0472
ac0e
f376
8554
3e54
7cff
6f80
74d7
2883
39f8
5b95
5c54
0543
182d
ac5e
18fa
4654
7583
fe54
ebb4
1401
5a54
ac21
ac1b
ace6
6983
2683
3383
ac62
ac7d
8b83
ace9
f783
2083
862a
b954
b3eb
1483
acfa
0485
f653
1754
f754
e896
fb54
3a05
8383
b583
c231
acbf
2205
3280
6401
19cd
046e
9254
8054
1484
0754
c2a5
ac0d
ac9a
ac5d
3d07
a754
a083
ac6e
9001
0680
6783
06a6
ac29
705a
4683
ba83
1f01
722d
ac93
9054
2554
50e8
a454
3c83
ace5
0d83
7b83
a383
c283
dc83
6a54
aca1
b183
ac0b
047d
2e31
c554
2583
6083
9a90
7854
ac99
9590
1283
d9a3
8f05
b354
ac22
ac95
047b
3654
f58b
445c
6654
06df
2183
b4d8
ed83
6e83
8154
da54
ac2a
0701
0492
acce
4a83
ac76
acb8
aca2
4444
047e
4105
993a
4301
3b83
0954
ac37
06c7
13e5
ac2d
5e83
9690
6f22
0990
7002
6b83
4483
c383
a008
acaa
4c01
5483
55fb
acd2
fd54
ac55
0305
13e6
b9d7
06b9
e254
1cf6
7880
3701
3165
8a54
010f
1683
4f46
2c54
4b83
0482
acfd
acae
e583
64d7
acee
fd01
ac56
acc1
acb6
4601
2a83
ac7a
1827
75d7
2305
accb
8b05
ac1a
ace2
0404
0b90
4201
3890
2d46
7e83
048d
af54
018f
0a9a
2f01
0493
f354
d183
ea54
1254
0498
a901
acc5
671f
a054
3a01
ac14
f183
ad54
8583
5c83
6701
ac3a
8683
2011
0475
e283
e83d
2abe
ac59
047a
048e
8754
ac79
7283
7a54
320a
acd4
acba
2e83
6001
0402
ace8
acca
ac06
7c01
3705
0479
acc9
4c83
e790
adfc
7501
bc54
9554
be54
acdd
c479
04a2
6c83
a554
e754
acda
c054
578b
ac82
5383
9dad
ac2e
fe83
ac8d
3e83
b083
06c9
7883
a483
9154
cd54
8717
aca9
c154
a654
2301
e654
acb5
f583
2b01
4f83
06a1
f983
6963
c683
acd1
0f54
9b54
2b19
3c07
187f
676c
e983
05d8
ac77
7276
3683
ac75
f954
e183
9754
0f07
5283
0197
a983
5883
06b2
ace0
fb83
1883
046a
3dfb
7075
acc3
3901
2f83
7f01
ac89
8a83
ff83
f154
acb1
0161
0499
ac11
e783
06ca
8080
be83
35be
ac8a
049e
e954
6301
b376
a154
9583
1c83
8d54
7a83
06da
2483
e854
0883
ac35
accd
7f54
89d7
ac63
ac26
acb9
8f83
de90
6a83
acf2
048c
ac15
5f83
db54
6b01
c754
6e80
6883
acf3
069d
ac69
aca5
b054
ac9c
7a01
f554
6f0f
1f83
6501
6e54
4001
5b05
7483
8201
0c54
e383
06de
06ae
6d61
dd54
c983
8654
ac2c
9354
9e54
de83
7201
ac09
3166
d254
ac98
0b83
0d01
f6bb
b2d7
1d01
ac85
ac8e
acc2
ac9e
3288
3290
6601
1c54
0e01
ac19
bb54
5201
ac07
0471
ac3e
acf5
ce83
ac36
4e45
a254
c854
06d4
eb54
1e01
1728
9a54
ac6a
2783
4b01
d054
0462
2c83
acf9
ef54
ac7e
aca6
8801
ac7f
db90
aced
ace1
0487
acbe
acf1
acf0
e054
c3a9
8e83
9454
8d83
048a
b201
3401
ac25
049a
ff01
acf6
1216
ac61
06dd
5046
ac9d
d083
c583
ac13
acd5
de54
6f72
e0d7
0496
ac71
ab83
ac39
8883
3001
ac0f
049d
ac65
3883
5d01
8854
a183
6b05
cc54
ac97
acfe
7383
0481
3d01
9954
9854
2701
9e83
f683
3301
ac9b
acb3
cb54
e301
d154
acb0
5066
3202
f254
ac31
7009
21d8
069a
06b5
40cf
0180
3f83
acd9
ac8c
acbd
8983
9083
ac5b
0590
6405
0901
06ba
dcd7
06e3
3e01
ab54
acfb
a354
6201
ac18
ac86
eb83
ba54
71a6
5854
6305
6854
9f54
b883
0473
acbb
0495
0505
8083
ac7b
7e01
0489
4fe8
056b
ac2f
47e8
ac81
ac91
8636
ac23
ac32
7701
a683
1473
c654
ac68
048f
0783
ac57
e483
5d05
ce54
acdb
0466
b554
16a3
e083
a5d7
d583
8301
0461
ace7
c783
06b1
0b01
322d
acc7
5a80
f883
ac3c
b454
04a1
1b01
acb4
3952
3b01
e554
95be
c454
ef1f
ac27
ac1f
0693
045d
0160
acb2
acff
acd8
1e05
045e
7301
df90
acab
9a83
8483
1462
046b
06e2
28d8
6f62
acf4
ac33
ac8f
89de
1301
2f05
7605
8701
7d80
f854
8283
ac0c
d954
5f01
bb83
e883
ac87
62d7
edf5
4a56
da83
d804
acc4
aca7
cb83
0494
ac58
61d7
ac2b
6d05
ac3b
ca54
b283
1805
ae54
a301
b683
0463
04a3
4501
acbc
ae83
acef
4f45
040a
6ed7
d383
4705
4d01
f005
df83
7980
ac5f
047c
ac64
0491
a3d7
06d2
06a9
06d9
acaf
8001
7cd7
3d05
06e5
6b99
ac60
a883
3405
ac78
cd83
43d8
fa83
cb01
acb7
accf
e6d7
e898
06bd
bf83
aca4
8254
06e1
f483
06b6
ac9f
cf54
a501
2e01
aca3
0488
e905
8e54
0497
accc
8954
0692
6952
012b
42d8
2508
1dd8
ac28
8783
67d7
2d01
7562
057e
ce01
ac73
bb01
fa01
6fab
4980
8c83
2a01
b854
ac70
5e01
b254
272d
c254
a783
e454
9483
0686
70d7
d283
06bb
4401
1445
4801
8980
ac30
06a5
1901
ac6b
acc8
d883
2001
4e05
a283
fc83
e683
acf7
ace3
0478
acac
ac17
acec
6f4e
06d7
06cd
f0d7
0dd8
9f83
fcd7
6a01
95d7
048b
3801
af83
06af
ac10
3ad8
047f
4f01
ac34
31d8
fbd5
068d
ac8b
4446
8b01
aca8
d701
06b3
3bd8
ac88
04ad
ac1c
e897
ef01
9883
6f18
ef83
0e6a
d101
7101
06aa
aceb
7d01
049b
2705
ac24
5601
5501
9b90
6f08
dc80
6f52
4101
4686
acfc
db83
9b83
35d8
c36b
acd0
5c01
5a01
8002
9c83
2101
7480
2c01
69c6
0467
b1b1
9490
3e06
32be
90d7
6101
ac6c
6021
3501
0697
7f05
2401
ac67
05ad
5f05
b483
3384
ac38
1ad8
ac5c
bd08
4068
9b01
acf8
1501
7b05
6f10
069e
c883
65d7
06cb
686f
c483
ac94
bc83
06ab
049f
acdf
2201
d290
ea01
0104
3998
2b05
6f47
4901
c890
e5d7
b001
eb01
049c
7bd7
069b
4b45
9283
d683
bf01
7801
4005
3101
4d80
ac7c
7070
f383
ec83
bb05
e92b
cf83
cc83
5901
36d8
9383
ed01
76d7
06d3
1d05
f601
78d7
6f6a
1ed8
acdc
5705
2cbe
aca0
ca83
3601
15d8
2dd8
71d7
ac74
fd90
df01
0465
ac84
0691
ac04
7901
3508
b701
06dc
6005
06cf
7c05
3605
3259
af01
0952
ace4
e090
5806
7b80
7401
12d8
046f
06e6
01a7
06e7
3206
e701
e899
1c01
7c89
7905
c690
046c
c701
39d8
0d80
015e
30d8
28c7
0874
b1d7
6f1d
5d80
f454
6e62
69d7
6705
8601
3dd8
f701
0695
e101
0474
4a9a
c290
eb05
06d1
9801
0699
6f46
7508
06a7
0d0a
45d8
6c01
79d7
45bd
f501
de01
9901
0114
3120
2501
6105
34d8
4c05
b111
5801
f5d7
86fa
b383
6589
7705
9ac5
2601
d5be
01fc
d505
0189
3097
0451
9301
706c
2219
6801
9d90
6b6e
0484
1201
5401
8901
030a
24b3
69ef
44d8
f6f6
1f15
77e9
2680
bed7
f190
7ed7
4e4d
9e01
0ed8
8d01
3986
ab01
c401
06a2
a701
3f05
41d8
06bc
7305
a001
0fd8
1b05
cc01
6ab3
e390
f301
a101
f280
e8e5
7c80
2ad8
9c90
6f0b
06a3
a854
3706
c590
6f63
f901
19d8
06cc
6f4d
d301
a180
3b05
4f05
66d7
32b7
6f4a
0cd8
40d8
23d8
340a
72d7
6f32
0468
e501
3305
7ad7
ba01
7d05
4d05
7071
6205
1405
069f
596a
6f41
f9d7
81d7
db01
0580
9ad7
06c8
da90
1705
4205
9069
f401
32b9
fed7
fa35
5605
cad7
e901
0406
9401
60b5
3805
c601
0459
4580
d801
25d8
b205
3236
c001
e001
80d7
379a
d5d7
06ac
3cd8
06db
6f74
20d8
8742
88d7
6ad7
321d
9f01
75fb
6f65
9012
6f66
06b4
8e01
63d7
edd7
6f49
32af
d305
32ba
0705
4c45
07f9
5176
7380
1305
f1d7
32ad
77d7
1a05
fdd7
011e
4376
99d7
327e
3fd8
4d46
0129
f801
6cd7
17d8
1fd8
0464
bbd7
8bd7
fae2
a0d7
e190
fad7
ca01
e401
0456
069c
4f30
6f76
0136
06a0
1605
5006
51e8
3c01
07d8
e201
fffa
32c1
e8d7
6c65
d001
3105
cf01
22d8
32b2
6805
9905
33d8
d83a
8376
09d8
0c01
2d05
e290
2005
ec01
2363
fc05
6d2e
ffd7
91d7
bf90
6f3b
32b6
55be
dd01
96d7
2605
7a80
f305
32b8
6f06
3506
4305
c1d7
a552
9a01
2105
be01
7473
3006
a005
2d80
5805
6f1a
1751
2fd8
0d05
6f2b
ff90
8a05
6f6b
327a
71a4
7c3a
16d8
3294
7374
d0d7
4b05
6f75
08d8
2ed8
4605
c4d7
0905
dad7
6f55
6f34
e4d7
045c
bdd7
9c01
e1d7
6f1e
ced7
6f7e
85d7
a551
71a3
068f
8005
f605
1468
5e05
6f4c
6d78
37d8
324e
68d7
3005
8401
1d80
c8d7
a9d7
5205
1553
d990
1bd8
01ef
068e
32c3
6012
ab2d
5305
38d8
3256
9de8
7fd7
ae01
3e05
0a02
ff05
d501
8fd7
9a42
0ad8
cf05
3239
5a05
cd01
3ed8
1c05
d201
32c2
b5d7
7a05
cb05
3623
f6d7
a40a
2cd8
c990
a201
8fce
b101
d398
810a
24d8
32b0
6f79
7405
1958
9305
3237
0447
6f56
a605
bc01
e9d7
3211
d1d7
c9d7
15f3
a1d7
045f
1f05
6d46
ed90
f590
044e
6f3a
8dd7
7dea
92d7
6f69
b005
9d01
3331
045a
6f5d
32b5
6d4a
2a05
6f2d
0175
ead7
14d8
6f7d
9dd7
745f
9201
c901
6f5a
1880
2e26
fa05
2bd8
73d7
3210
1cd8
caf4
32bc
6f0d
6f17
06a4
c5d7
6505
4b46
ee01
4880
fb05
ddd7
c376
32b1
9605
2e05
8741
7e05
0436
c2d7
c0d7
06b7
5b80
6f4b
04a6
045b
9101
0682
0694
c3d7
3505
0449
9e90
2505
26d8
b601
272f
5129
d9d7
fc90
b0d7
043d
6dad
043e
afd7
32c8
b901
f101
df05
18d8
6a47
6f3e
32bd
cdbe
27d8
0b05
6f51
0446
b725
3a72
d8d7
6bd7
6f53
a53d
8a9a
6f09
4876
e601
13d8
06e4
6605
e590
8501
044d
ef90
7608
5090
b605
c205
e890
ad01
a305
9a05
3292
87d7
f2d7
eed7
86d7
6e05
c801
2580
e2d7
e005
83d7
5014
0445
af05
d705
3905
a4d7
097a
7275
e3d7
da01
bad7
6f71
6f16
202f
0455
d901
6f0e
6f42
d7d7
3233
abd7
1505
6f48
4e46
e490
6f78
5420
3272
01ad
ee90
b35b
d005
82d7
d075
32bf
cdd7
325d
8605
1205
8ed7
add7
01e6
9bd7
6f26
1905
8205
6f2f
c101
e805
6f45
01d1
8c05
4405
88e5
050a
7205
9f80
6f2e
7072
b7d7
6462
f3d7
f7d7
8cd7
6905
0bd8
5b0a
6f77
145c
e7d7
f0ea
a2d7
4905
d401
6f29
0433
94d7
8e05
324a
a6d7
8805
6f23
b4d7
7805
012a
3c05
6f19
aa80
c305
5905
0458
9b05
5c05
e705
3221
326a
6f4f
530f
7505
9805
9f05
7105
6f6c
cbd7
6f12
57e2
3232
32f2
0d90
6f2a
46e8
ab05
e801
d590
98d7
068a
2c05
0453
7069
6f31
d6d7
a7d7
012c
ef05
6f7a
ca9a
6503
5405
3279
32b4
644b
a905
b801
3590
ad71
d205
4e52
3235
6d91
8ec5
044a
325e
e3e6
0188
3d80
0166
9405
6f5b
9cd7
a705
6f43
d3d7
6402
321a
6f64
de8
043a
b555
0186
3242
a8d7
6f70
0452
3266
04aa
e6ea
7306
b6d7
f4d7
dc99
3a61
e990
69e7
3251
6ef1
51db
5352
a401
32e2
d4d7
2405
326d
6b08
9ed7
9f90
97d7
1e90
e976
327d
044c
8ad7
824c
6f33
6f61
3246
ee05
d180
fbd7
3216
6f21
068c
5505
6b9a
f690
6f3d
0676
81c9
cd90
cfd7
6c05
3227
0442
6f24
32bb
6f15
ded7
0432
9005
7180
b3d7
08b2
25f1
d2d7
5b26
7cb5
5a53
7c6e
80e4
324d
fd80
0672
cf86
e8a5
01b6
320d
fd05
a505
3267
6f38
c105
4d90
0873
3276
3b8d
e89c
807e
9fd7
a801
9c05
ae05
aed7
7b22
c6d7
32b3
1580
0f17
f8d7
7336
740a
e205
ebd7
3090
bec9
dfd7
cd80
6d3a
326e
3226
1456
9a32
6d02
b705
6580
dd80
6d90
8305
0308
84d7
6f59
f990
c580
0457
f105
0155
323e
042a
f080
360a
183e
ba05
626c
bf05
067a
c705
c7d7
017d
3730
570a
e89b
ed05
b405
fa90
72a5
93d7
12ff
5b22
c5be
7e80
fc4f
7f82
0170
7602
efd7
9e05
6f68
323f
3262
f205
4344
e305
32ce
3215
044f
c805
477c
32eb
0441
3263
327b
db05
c30a
3271
6d3e
01b8
e405
322a
bea5
04a4
5d86
6f5f
067f
6f03
3249
04a5
01c2
6421
0689
0679
b8d7
aaad
3a20
323d
bd05
4c80
6308
0993
3265
500a
6f37
05b1
6f44
c0fe
7079
2032
3580
de05
01d5
979d
bf1d
326b
c005
8705
aaaa
6f5e
4505
1aa4
bcd7
0886
f505
d580
6f27
7ee5
f290
325a
bfd7
f705
8a45
3229
042d
13e3
c405
3d08
ce05
506f
8405
6180
6480
01ea
6080
dab2
52e8
cc90
1451
da05
044b
6b80
e690
1802
8d80
5390
051d
b805
3209
5580
7422
aab0
dbd7
322e
700a
3231
ccd7
3207
32a6
ed80
0439
6f1f
6f04
e105
bc05
ca90
3261
7c0a
a105
8905
c390
ea05
3255
3a90
b2cb
5bb9
be05
067d
3273
3269
0176
a57a
3180
eb90
6d45
3285
01ba
01cd
70e9
13a8
ca05
223a
712c
6f25
f66d
9705
2890
6269
6d49
32d6
73e8
6d42
636c
043f
9390
3480
ccbe
b105
5026
32de
5992
7f80
40aa
6f1b
314a
a405
6d51
0191
fe05
16fb
d280
6f07
3222
014a
4e02
6f60
d405
32e6
3219
1f80
3245
0673
f580
7570
8580
2c80
696d
4443
320e
8105
b905
328a
663b
ee8
c605
4146
c050
6f3f
0980
5f69
6f13
f390
32fa
9105
32c6
94cd
0448
aa0a
15ae
9505
4c46
2b02
f572
574a
5e17
6f14
8505
1480
32fb
3234
fb74
321e
3296
cc05
6f2c
0671
067e
2d90
03ff
e605
0863
3225
6f0c
c505
016d
fdf3
600a
0421
32ae
3295
ad80
01ca
0681
3223
f905
3275
f172
ec90
9ddb
2080
7050
407f
6821
326f
2a70
e2e9
6f57
4c90
b580
8743
fb90
e505
3241
32a2
d905
32cd
32ea
0443
3a80
0c90
f693
051e
0677
3d90
ad05
d8ee
6f90
6f3c
696c
702d
f78a
1d12
c490
017a
7077
3282
013d
b505
6f30
3264
95c5
6d6c
054a
5936
50ad
32aa
3278
1590
aa90
cd05
04ae
6b98
3adb
0e90
8acc
e9b0
3204
dcbe
6dde
326c
070a
01fd
c5bf
6d73
646c
01a0
a487
014d
8490
8f0a
ec05
8880
6f5c
066f
31e2
a090
6d41
fea7
32f5
011d
3253
f490
6546
9d05
013e
d605
017e
7989
6f7c
0444
e859
3244
01b2
aa02
8d05
2633
3f80
d890
325b
a205
8bad
015d
01ce
a5ff
5fd8
d6e9
7402
0890
60d7
4e0a
322c
3277
019a
6f1c
6680
3561
01e3
3980
503d
043b
3293
1690
322b
706e
e580
f805
32ff
4590
45e8
c905
5042
8de3
d105
32d4
3247
6d62
53a8
0685
7fff
321b
9368
7264
0ac1
fc50
5050
6dc1
6a80
067b
d194
370a
9d80
07ff
32fd
4780
9af0
6d48
6969
0142
f1f2
9205
0145
fe11
db37
329e
705e
919d
504a
6d65
f002
dd05
db80
327c
64ce
32a5
0182
5b02
6f58
32e9
0435
cb90
4080
7730
6f7b
17db
516e
0674
f0b7
321f
3212
2302
3257
3270
1e89
328e
01bd
01c3
0422
ce90
4a80
eeb3
322f
919a
0172
3c90
321c
0a90
6d56
ea90
504e
32d1
2880
6dce
32ca
3203
6f7f
c190
4290
7062
7a6e
01dd
3299
5043
18fe
6d5b
5004
5180
809c
5190
013c
7302
1780
0f46
4090
0684
ab02
a978
6d3d
01fa
3214
81c8
0f0a
80c5
4af2
32d2
6f28
cd22
1d90
0f3e
3238
0121
32a9
014e
0426
01bf
0502
325f
1768
5980
a580
6f20
4480
3f02
6fad
1980
0165
3248
5290
2268
3298
3951
05ff
f890
f790
d70a
6d7a
2390
d190
200a
05a4
6d47
6169
f380
4b62
0169
0162
05fa
1990
3d02
329a
0a80
9680
042e
430a
530a
6302
3228
05fe
0a4a
278e
5380
3213
01c6
d831
6d3b
3130
6880
bd80
3990
01d7
6d44
80c6
3080
0194
4302
39cd
6c80
6980
018a
5d02
620a
50e5
1680
3224
d790
70ad
32c9
5b90
9980
144b
3274
2d31
6fb2
8ee5
6d4b
3289
4690
9480
6d17
4790
0552
0167
324c
4390
0702
4202
7073
cb59
aefe
32ee
041d
1356
0a09
3268
3b0a
8802
fe27
0116
2190
c5ae
97cb
ff44
0152
143a
01a6
872a
646e
7df2
580a
f56d
2180
5402
680a
6d8a
6d6e
5780
32f1
f712
01de
3190
1a80
b199
1d1a
016a
6280
60ad
013a
327f
6962
018e
5d90
32f6
013b
0b0a
2a80
16ff
6ff3
4e90
4680
016c
3439
3243
e041
640a
6d39
01f2
6d4d
4180
32dd
2b7a
068b
6d5d
6702
32c5
616e
7cf1
0431
1ef1
5096
d090
4d2d
79ad
32d5
3e11
4990
6f9d
323b
8859
c6a7
5590
04fa
6273
3260
6155
704d
6602
324f
2280
32fe
503e
5480
5859
04b5
0156
8b2d
3281
707a
017f
32ec
c01d
01ee
6490
32e1
3490
3880
3680
0687
c090
01b3
012d
5dad
32ed
0115
3220
6d43
01f5
4a90
7036
34a0
a315
1b0a
5166
8a04
067c
6961
68fb
01e2
325c
4002
0198
7006
2f80
0b80
a046
7d89
f980
704e
55ae
05a5
4744
8725
6ef2
0599
2b80
6d86
32cc
32d9
3653
919c
89dc
320c
01d4
0e80
7288
3258
e55f
0d96
4f80
3287
0199
32da
0429
c4ac
d3a8
9290
6d6a
4280
9880
7702
2780
69ad
0192
6d38
3291
d690
998e
0122
32f3
1a90
3f0a
04b2
0592
a980
01f0
3733
0f3d
2033
aa13
3b02
2c90
7021
1db2
32f9
3406
0516
01e9
010b
707d
32e5
6002
46bc
01a1
fded
53e8
01c1
216b
0f90
042b
04b1
32cb
6380
3164
505a
b380
01be
e89d
04af
80ca
329f
5b1d
2606
9080
0536
0159
706f
014b
e880
2002
012f
170a
0185
3217
0126
1d22
05d5
8f80
440a
01e7
01b7
aa5e
3218
3e38
6239
5002
6c5e
4190
5052
6d96
504f
5690
1380
0437
0130
cc80
702a
70ac
08ea
e90b
0f41
cbcc
93a8
8b2a
0196
019e
32a4
7657
016e
329b
1466
01f4
6d4c
01a8
c480
0f02
27f7
010c
32db
15ad
3c02
50f6
3780
75c2
c380
9cc7
0133
8302
016b
2e80
7076
f009
01b4
0141
01c9
3284
504d
2790
7a02
0afe
2b06
0112
32e0
015a
c980
07ee
760a
01c5
042c
6f81
706d
01b1
2090
641b
7ffb
a51d
7b0a
1790
507f
012e
3441
04b3
65e8
6163
a48e
1d1d
7016
3dad
05e6
a080
7065
2729
32a7
aab6
01ed
01d2
4f02
7164
3a0b
806e
328b
1390
2690
8280
01d0
328f
0109
5c80
6d82
f202
16ca
2590
0193
04b6
0123
54e8
f180
2295
0f47
2e90
500e
32d7
1b90
3d45
7a89
4380
756e
aac2
4b80
3a02
04a9
7056
32a1
703a
0124
32fc
50fe
0427
01cb
0f42
04a7
57ec
0151
730a
502d
01c7
3c80
4e80
7d6e
01ae
32f7
61ad
32e7
6b62
63a2
4f90
1e02
fdee
b00a
018d
6db6
cd31
3102
8e80
80f2
0e0a
9780
34ad
32df
4871
1c80
7035
506e
770a
32c4
5e80
01a5
0438
015f
aa1d
5102
5280
f0fc
0bad
4232
3e90
6472
ab80
4479
1aa6
3790
7015
07e2
c6a6
695d
646d
5be8
6202
5076
c080
a190
7008
6d5a
32c7
e680
d380
6d72
32f4
32e3
5f80
17be
4966
01e5
1442
c5b3
7f02
8780
47ad
7003
470a
32f0
174a
4890
7590
13e7
d780
0195
0157
4272
150a
32a0
5c44
01a2
9190
0125
1890
6d3f
5916
f571
700c
9e80
f6ea
8b26
016f
aa86
e893
0127
01aa
1d16
32ef
6d52
5bad
e980
b480
7ffd
645a
01cc
6e02
3690
4976
0171
6c75
32a3
5047
1f0a
6090
3380
890a
5092
8b1d
4f0a
32cf
43e0
7af1
8e0a
2290
44a9
1dad
0434
64ad
616d
8b76
71ad
6eef
6780
6d6d
4702
2b90
3f90
1d1e
0119
2a90
aac9
50d6
7369
ff11
bc80
970a
6d92
01da
6d6f
6d79
7d90
56e8
1999
c180
1b02
79f1
0148
2e0a
12ad
7690
013f
1a0a
3297
766e
fc80
6df6
8bb2
19ad
054e
3602
01c4
919e
25c3
aa2d
cf90
5790
4490
1267
2db2
01b5
1f0d
05c9
3a5e
b19a
7c02
aa42
7059
6d76
01d9
507a
6465
8e99
4dad
0561
6176
8ea5
16a2
1490
762d
0135
3a0a
7042
66ad
705f
3ef1
6102
1302
50c2
f0de
e90a
7045
8b2e
50ce
15c2
4541
f680
4ac6
0173
8e90
2dad
380a
0163
8b02
f56e
f1fd
ad02
2b0a
6d7d
01f1
e894
55e8
0153
0c80
5680
b980
2480
703c
6d36
4b0a
1d13
042f
6562
1e84
49ee
015b
cf80
6d4e
0139
80c2
77f1
800a
3b80
d980
3390
5490
c680
7190
6802
126e
0a0d
2f90
230a
3711
6d75
309e
1c90
4ead
2d0e
705d
e52b
0f45
3e76
880a
6450
2158
704a
5012
1c0a
272a
32ac
5765
fb80
5345
0158
6d0a
7049
7018
1646
b730
1ead
07e8
f00a
041a
5e90
e89e
04b7
f055
0113
6461
2702
2beb
053e
32d3
5049
d30a
62ad
6bff
0179
f0ad
f575
8b0a
0143
0e76
01f9
3050
aa46
0549
0f80
6d3c
0425
3052
3402
5b3a
49ba
76e9
7fb8
509a
0177
4f63
7131
5031
e080
db88
7034
0a0b
1446
fc0a
4b90
32a8
ee80
a690
014f
04ab
701c
b080
1e6e
4152
0fff
8480
50e6
5039
0f9a
6390
6d7e
32d0
4c02
0579
130a
5f0a
5041
6d67
7d85
07f4
416f
270a
01a9
ff0a
fdf5
50de
5b56
4dd2
bd0a
aaca
908e
fdf1
fffe
c8fa
5248
9380
01b9
0164
160a
5bfd
3c0a
7e02
18fd
32ab
aafa
6661
df80
5036
ba80
d7fd
6d55
7611
6d81
04ce
8ead
34ca
7053
7039
0147
6960
40ad
487f
42ad
75ad
2f0a
5990
e280
e480
7502
7ee9
7777
a480
01e1
bc02
926e
6d74
01cf
701d
6db2
6a02
7632
d5ae
5715
0586
696f
9180
2490
8f90
3702
1a5e
b288
50ae
7060
7055
240a
1d2d
6469
6c39
c1e8
32f8
670a
d390
6fc1
7ffc
fdf2
6290
39ad
1a52
702e
019f
0f43
f9ad
703e
aa9a
7b02
6ee9
308e
1eb8
6990
5d0a
3c4e
508a
2d0a
aa76
374b
2c02
4bc6
0120
5602
6011
32e4
011c
3e0a
67ad
1d0a
66e8
5215
5880
f60a
aa7e
9c17
701e
0138
701a
300a
1c02
011f
6de9
0131
329c
3032
0565
59b8
50d1
b180
763b
6d5e
f480
e222
6da9
3b90
6d89
01bc
0137
6d69
e780
e380
01ec
700e
9d1d
7032
7041
fc02
0575
01dc
7007
780a
6d77
6d26
786d
26ad
5a0a
4b02
32dc
ec80
76ad
8602
d080
8b80
aa9e
d490
e30a
3d0a
9b80
d7fb
0fc3
a502
6966
b731
7067
71e9
5d2f
7da6
6da3
f1ef
497e
04b4
7311
7bad
7063
0dad
6fd3
aa7d
3d22
f880
28ad
b9ad
461d
7046
5053
50c6
5f02
011b
aad3
bd90
01b0
5099
5048
7022
6502
2e06
40e9
6d58
3126
be80
c5b4
64b6
4276
3e02
69fe
6d9d
01ac
624d
3002
5051
f56f
aafe
695e
b2ad
6467
507e
5702
1a55
5b2d
eb9a
3f8d
260a
015c
01f7
fc6e
1d21
017b
c8ea
de69
1d15
0b02
a30a
aa29
1a4d
6da2
980a
0bde
1e55
6590
f780
6e65
6f8e
64fa
1443
8c80
7026
90ad
6e73
b6c5
cb80
f0ba
6d8e
0144
48ee
aae6
ea80
6147
5044
2332
696a
8b1e
3c34
01ab
bb0a
01d3
a680
ab0a
50c5
7037
04ac
6a90
7014
0416
5a02
be90
6190
1552
31ad
706a
9280
7661
978d
8590
fa80
6d8b
aad4
1b80
510a
702f
d7fa
420a
ce80
7889
aaba
924e
c280
180a
5034
630a
6db5
9056
6c51
014c
6fe9
0aff
9dc2
0908
4e72
6fa6
05b2
120a
019b
da02
a90a
f730
5d52
4447
20ad
aa3a
d7f2
31ce
17ff
c849
ba90
0a16
8b25
76c8
6da5
1f02
6f96
50ee
7f90
398e
0eac
da80
660a
0134
3942
052d
db0a
3afa
1e0a
01af
aa22
3902
350a
0417
053a
0546
3152
4e6a
64c6
707e
c9ba
f0f5
caf5
21ce
aa3f
0a3d
bf80
77ce
d7ea
616c
04a8
5095
5cad
041b
a302
0572
6da6
01db
7dad
01eb
ae80
5e0a
7ffa
6eed
49ad
019d
6d66
1d19
6de6
1687
78e4
7d02
d880
652d
550a
9f0a
95ae
6db9
d680
7090
059a
bb80
1412
aa32
f039
7202
52ad
4e21
7802
6d99
9c80
5c02
6de8
4f57
7990
7051
6d59
6dd3
01df
701f
55ad
4d02
3e80
d7f7
b70a
6dca
0184
63f6
37ad
554e
501a
4e36
6de5
1d11
aa4e
140a
2d53
5203
33ad
919b
5c90
aa56
400a
1702
0522
8790
af80
67f0
3a1a
872b
bbdd
ef22
50da
5b15
6f9e
2d91
e892
74de
01fb
a390
1429
d7ee
052a
e70a
fdef
7047
35ad
5b4e
830a
018b
5bb2
05c2
01c8
6d5f
51ad
8b1a
419a
6d14
8380
503c
2f7a
220a
5b2a
517f
14c2
6172
7c5a
0178
d971
89da
aa0e
6d71
30ad
641d
5b0e
6dfe
057a
2c0a
9842
50dd
141d
5b1a
41ad
ad90
7068
0118
018c
560a
0872
6fea
f570
5b2e
a290
50cb
3ead
2602
5b09
ef6e
5890
7c52
a590
f2bb
6dc9
2a02
7b90
6daa
5021
71a2
50cf
f999
0419
840a
50e9
5063
6b02
c30b
5502
704b
706b
057d
6b90
25ad
76f1
05f9
2065
6d9e
6041
053d
cdd2
5e49
05bd
8a80
3798
0168
6fd6
89db
5db8
6ef3
185a
8b42
fff2
6d93
aa4a
6f82
de80
2f1a
7024
52f1
394e
310d
7669
6c08
4502
8f15
3d8e
eb0a
8125
45a1
506a
6dbe
50fd
a23a
e180
3732
fa02
9cc6
0545
2e02
2f72
f573
8d0a
ef80
c780
09ad
7029
4d0a
4664
0866
01f3
aa72
fffd
1ef5
017c
4ac7
aa36
61bd
6967
019c
202a
8a0d
3432
9090
af0a
aa4d
1a4e
a56e
058c
796e
7b06
1eb5
8b22
4e2e
aa15
6d8d
3f9a
3d7c
1a4f
fdf4
e802
aaa6
162d
508e
4271
1aa5
7de9
c542
0566
dce6
4602
47ae
79e9
4402
50d2
51fe
2506
502a
8c66
0d86
2886
7af6
e4ce
5bee
3df6
45ad
6761
7a90
f50a
3d1e
210a
1202
64c2
aa6e
5c6e
540a
5202
096e
1ee8
d738
ca80
6d63
0513
8dfa
faf6
6475
7033
aa96
4047
d7f1
76de
44ad
dcad
597f
6fda
6dc5
6d2d
6d95
aabe
9a80
0174
6d57
3337
46ad
5391
bf02
50b9
a70a
6fb8
6d32
05ba
c6a2
0526
50b2
50cd
71f6
64d3
5b4d
6d8c
e0ad
c69a
6666
6f9a
040d
4e62
5c0a
3645
aabd
2d02
18ad
5ead
7172
6fc9
f06d
3802
707c
0d02
e7a9
5dce
cc02
c6a1
50f1
6da1
05cf
6561
e45a
793d
9602
6d87
501d
aa0d
b680
c20a
71e8
6452
9202
719e
9294
8ce7
507d
fef9
0532
f0e5
7052
1a59
36ad
99ad
6690
aa52
1a02
d602
6ded
05b6
6e63
09c4
0aa1
a990
7044
b880
4e7e
3dfa
6175
5b1e
aa8a
e0d6
2f6a
7c16
7019
59ad
6fe2
6dbd
5b32
f0a3
8b29
eb87
aa16
6db8
5062
a790
1d23
6dd4
05f3
eb97
6ff6
6dee
076d
6ffa
28f5
7df3
80cc
46c6
1d1c
fced
8f02
391e
aa2e
3022
6dc6
2d1d
370e
f1a1
2fad
ff62
5a90
1ef6
172a
aa19
aac6
aa81
426d
7572
3898
6d68
aa1a
7f32
a380
21ad
aa5b
db02
50ff
0529
250a
7273
6db1
790a
621e
4206
180e
5c69
642d
dc89
916d
520a
5b49
330a
7e26
6a0a
6dae
04d5
a880
f1fc
6d31
703f
a780
7d0a
05ca
1c09
91fd
0f3f
5291
fc32
5302
705b
5c62
59e8
5065
3111
8890
6028
a280
64f6
1d02
01a4
7ff9
4d99
7e89
6d9a
7b62
6dd6
6dd9
1bad
5019
3302
a1ca
707f
6d16
4fad
fc3e
7890
173a
3722
3752
701b
aac5
aa82
05e1
23ad
0415
7027
62b9
7a0a
5dca
6dcf
6dba
0559
4148
f70a
3436
aaa2
506d
702c
aaf9
6d2a
b002
703b
aace
8ce6
4742
f403
8dea
0563
8b90
aac3
2102
3dc2
6c90
7074
4ef6
94c2
aa85
6dd2
1d52
7b68
5075
5e96
509d
646a
fdeb
503a
c880
f0fd
6d35
4e26
5d76
590a
f9a5
6dcd
aaab
3dee
5b36
055e
5e02
7043
5c65
7b42
4e0e
6fa2
7c90
6293
aad2
6368
2d32
4e7d
f0ca
9f16
b780
6765
642a
8702
920a
090a
5069
2d06
0d5d
7c06
22ad
6ffd
b702
6fba
4bad
7017
a002
f9aa
460a
0d3d
aa12
01e0
4ef1
563f
1d17
05be
3cad
5baa
13ce
6dda
2076
6fbe
058a
371d
05c6
6d21
6fd2
424d
9eb8
6fca
fe02
aa09
7902
e702
6d64
cf0a
aab8
6af2
3e6e
0509
a4a2
1f14
6ead
5de8
2f69
b990
aa99
aa3d
bead
3712
e55e
7c5b
05a2
4e06
0e73
050e
c002
6dfa
8b72
6d1f
05b5
78f1
7686
0596
2a0a
9938
aa5d
410a
7c50
5c6a
4236
700b
f574
6c44
5966
7261
707b
041e
fb0a
aa8e
750a
5b47
4266
f99e
2402
428f
05b8
1d1f
bc0a
9308
aab2
4d66
8bf6
0573
0f44
f602
8c90
134a
4e7a
6c02
d50a
786e
c69d
7622
425e
4e42
aaa0
307a
bf11
aab1
50c1
f288
302d
b08b
c10a
644a
8b1b
7789
3450
5c6d
5f90
700f
6fa8
342a
8b23
480a
14ad
f04e
9249
366d
695a
4e5d
c69e
6e90
81ad
4057
646f
3435
174e
4e4c
6d7c
7589
fafe
9a02
44e8
5bfe
0a5b
4096
0c0a
dc9a
dc98
01f8
41c6
b590
9dd2
5e7f
09d5
5089
2f75
457a
f046
4eaa
8c5d
5b5e
d480
8b28
4dea
056d
51ef
0515
0403
054d
2f02
6fe8
d002
5b42
e202
28a9
6d15
974a
71d3
370d
696b
1dde
b30a
eb80
6da7
e522
aa7a
131d
6e69
6d85
05e8
1604
70f6
7fef
7ced
6fee
80c4
504c
4e3a
5c61
0409
c6a5
bc90
5b10
3d70
41be
0581
6574
057b
0531
5b3d
05d2
6b52
c00a
505e
3ad6
f93d
5035
38ad
5b5a
4262
6442
4e71
fc58
503f
6451
ca0a
1a56
8b79
5b8d
358e
b502
406f
ffea
aa79
8b7a
6fd4
0107
0412
e7ad
8d90
3532
7522
bf7c
cd02
f2a5
993d
0dc2
656c
f012
6fed
0511
6968
aa6d
05cb
6df2
2ead
0d7a
8680
058d
0f81
0dc9
6fbd
1d14
18f6
631e
05c5
5b0d
f302
52b4
d336
15d3
4dca
72c2
6d53
55e9
0551
073f
6d97
8b20
e102
7390
8850
0541
75f6
05f5
50e7
b6c6
6dc3
fdad
6fc2
80cd
1aad
50a6
5b76
7064
0d72
8b1f
7b16
d7f9
d60a
421e
6051
405e
411d
fb02
6445
64ea
f5ad
6959
055d
6fe6
2dc2
d74a
351e
562d
1893
41a6
a702
3716
8090
3072
aa75
8089
059e
6d7b
098e
dcb8
e2ad
1276
8096
1fad
6439
870a
4d56
9910
6d29
0564
7048
de49
0593
aa55
697a
6ffe
6d4f
43bd
49c2
14a6
4850
626f
b80a
647a
5f49
7e90
64ae
2d7e
7c7e
4242
3c6a
6daf
72ad
2f1e
4e3e
702b
704c
6e3d
7d5e
2cad
5b66
7078
7790
6790
7e0a
a3fb
edad
4e55
13f6
51a2
b090
9102
372d
20ca
3471
2aad
7b0e
3431
1346
041f
640f
26e9
53ad
3a14
d102
7689
6fc6
0961
5b45
aaf1
63ad
6256
4713
229d
1832
5081
ae02
14c1
349e
4eee
501e
50d4
4348
89d9
aa21
1a5d
3de8
6f92
5b92
5b21
96ca
e10a
aa6a
6911
6d11
5b16
644d
f006
5cfe
9efd
23be
6f89
01e4
fdec
b1ad
aafb
6261
5aad
7490
6d7f
89df
1581
eb02
d7eb
3db2
aa6b
64e8
5022
b22d
1402
05f2
aa9f
aa45
50d9
c546
9aef
33e1
8e56
2048
7038
6ff5
5b51
4e6d
7057
6d33
5016
357a
6872
50bf
499e
6161
aae1
1d1b
16ba
d7fc
8b27
50fa
c6a0
e24d
6279
64f2
6d60
9db2
7676
5c5e
05aa
05d6
4ec2
7013
7c22
4e69
720a
424e
fdf0
aa92
3106
7b1d
c69c
1eba
643a
8831
80ad
5b7a
2bad
2231
8f63
4261
f066
6608
2dd4
1d56
2a79
5b4a
6479
367a
6fa1
76d3
3a6d
4510
6fa0
230d
4d5d
0525
132e
37da
64c7
9502
7030
883e
4e22
6d1d
aab5
4d98
647d
8e8d
77ad
30b6
6466
80ce
6611
341e
bd02
aa65
bbc1
7de8
78d4
78ad
8b3d
2bfa
607d
231d
fc2d
b98e
aa39
7f23
5da1
eb96
6970
6d0e
4e67
6fb1
2aea
73b6
80c3
155a
0582
25a6
2035
4dde
dc9e
8bb1
5bf6
3d2e
8b43
3721
5fd9
7c2a
1bd4
6d08
0fa5
aaff
4916
1dd6
c172
505d
5b29
13a6
0538
05e9
9f02
6482
496f
f07d
f0b8
4252
2346
4265
515e
6d19
bbf1
7970
ffad
b006
3a79
d7f6
9841
6b7a
31d2
041c
3af2
58ad
0f63
aac8
4c0a
0875
1434
5b08
5dd6
35ca
8eb6
0cad
4902
d1ad
4aad
746e
6476
44aa
6e13
25e3
1fc8
54ad
d7f5
51f6
d20a
6ff2
050d
2f6d
aaa1
607a
158e
50a1
7f2b
6fce
aa61
31c6
fead
2f6e
0537
79db
8bae
fa0a
5fad
0423
ec02
3a0e
05c1
b690
0591
05d4
3742
6f98
4e09
17d4
50f2
6d8f
5b06
0f92
a5da
bb90
6f91
4e3d
605d
5084
474e
91ad
348e
0539
50f9
7102
c6a9
fe4e
4802
4e1d
b202
68f6
0569
4cad
1441
0517
aa33
767e
50a2
0df2
8b2b
6c50
4de5
b0ad
3ad2
aad9
0f96
2502
7cad
5d4a
3020
610a
dcb2
3811
051a
50ed
1e08
ef02
0f98
6d30
4e0d
aa91
8a4b
8b19
6142
7ead
a5c2
9f9d
71a9
5732
aacd
b196
2e9d
7d16
6fe1
1322
1621
1444
6096
39fe
9999
5091
5e76
7312
f075
362d
c602
5059
509f
aaee
4e51
6c57
450a
6d1e
486f
1cad
5876
1ee5
6ddd
aa57
2d56
50d5
5085
354e
50f0
aa35
640d
228d
456a
b302
be11
6621
a5ad
60e8
8b18
aa25
4992
a50a
055b
2be8
4fdf
28e8
3fad
ef7d
4562
89e6
aaf5
7e6e
f9a2
490a
6dab
91f5
426e
c6a3
5b6e
6c0a
3437
2a9a
6972
21d6
6468
56ad
5b31
aaf6
89e1
6d22
058e
6936
375a
427e
5055
764d
0d4f
8eb1
05ee
70a5
059d
0a11
89e2
50aa
3d93
900a
d7f3
50a9
4e39
6dd5
6412
05fb
50d7
9e0a
215e
081e
1502
2f06
930a
aa66
ddad
50b3
dead
75e9
b2e9
49b6
6f94
6976
e902
9902
b4c5
ef0a
5ba6
492a
1e62
4dcd
4e79
6fb9
c699
e9ad
596e
2a96
73ad
7d1a
ae90
7961
0547
6744
764a
50e2
4395
1eb6
17ad
5846
140c
aa23
4036
eeb2
6456
86aa
6f8d
6eee
3726
5b12
6e6e
597d
191a
05db
6f85
5c5d
792a
502b
aa2a
3d72
aa62
6db3
49e2
50c7
7004
873a
5df6
b709
6ee7
503b
7bdf
776e
8402
8b06
4050
21ca
3bad
aa31
4e6f
6bf6
f0c6
4e65
6d84
0518
624e
6978
1c50
f0da
6f95
7f89
aa7b
0fa2
4749
5c66
237e
9251
aa67
4259
2ae2
64b1
5d9d
5037
a00a
d00a
3335
f0ce
6fc5
6d1b
39ba
351f
50b1
8ea6
7023
054c
a74e
aaef
3727
7552
88d2
64de
04b9
4eae
f30a
05fd
cb0a
4e2d
6dbf
4d5e
809e
5802
defd
4e2a
606d
aa5a
6dd1
05b9
0527
49ef
6025
88fc
50f5
2516
0187
7ef2
b490
34e6
7eb2
50a5
36e6
80e9
65d6
4dd9
3d7d
aa98
64e6
d7ed
6316
8b21
6f99
4241
bf0a
0c02
fd0a
05a1
3135
7265
644e
61e8
695b
417e
796d
0598
6fa9
3ae1
9d0a
dbee
1bfa
f998
7fad
ff14
60b6
aaf3
218e
0523
5b79
233a
7c4a
0548
3536
441e
2f67
6409
0519
424a
2dc1
6aad
5dc6
4de6
729e
f2ad
8bc5
6dfd
aa11
89ad
336a
3a5a
1902
aaa5
181d
6d0d
a9ad
fe0a
df0a
fcc1
8c0a
7bc2
c6aa
7d36
aa26
4c4e
b852
8b4d
0dd5
2cf6
764e
0d62
3d36
6faa
1e99
aafd
6e11
2a11
d9a5
3741
4102
577a
77da
f203
5d16
31c2
7dce
43ad
8ea2
390a
b290
3ae9
6353
6d5c
6da0
5d2a
34b6
5b98
3dae
2d8e
50e3
7c1d
4598
31ca
470d
316d
d4be
6fa5
aae5
13ad
a602
5b14
aa28
8a90
e666
055c
a5c1
0512
ab7a
0571
1ee6
5b63
05f6
aa6c
75f1
bdad
0ae7
8896
6dcb
85ad
1daa
b2de
aa59
be76
0589
aaea
25b1
f99a
c05d
7ef9
3731
1f3a
6bad
6419
5156
1a51
1dd9
aa69
c60a
d749
57e8
317d
c69f
0521
7636
6cad
07d7
713d
eb7a
b190
7df6
1526
169a
aa1e
1f32
64cd
b2da
7c42
05ea
3958
5029
7289
4269
3aa3
4e6e
13fb
52c2
f9a6
0c21
aab9
8b07
791e
6f8a
4dd4
6fdf
50d0
1d36
aa41
5dc3
74cf
6272
1572
0424
0411
500b
5071
1de2
5df1
a1ad
0567
2e5e
1d96
25d6
4e66
40e6
4efe
a20a
5b85
5067
45aa
ffe8
49f2
6474
6c61
7c32
7010
b495
5079
4ed9
0595
6e9f
de0a
c9ad
6473
76f0
1e0d
3936
2756
4142
6429
6426
7020
aaed
5c63
5e35
5dfa
6fb5
2d86
487e
0a21
5c5f
1a53
c5ad
1d5e
4b0d
f050
427a
6622
aa9b
506b
6df1
3ac6
d40a
993b
61ee
763a
053b
dce8
ce02
f07e
50b6
630e
884e
4d52
5b39
a890
74ad
31c1
95ad
2b52
05cd
636d
4b36
1d20
7b52
a513
eb99
657e
0902
05b7
c53d
4c06
1a60
613d
07ad
15a6
2dc8
05d1
05ed
05dd
6455
ad0e
4d7a
37fa
7566
d5ad
340d
5cf9
aa3e
603d
1522
178d
24ad
1da2
6173
f07a
70ba
5061
1f08
aa71
aacf
6d6b
8dad
051f
6b11
208e
1d0f
4d76
6266
1d7d
2fa6
48cd
4f53
5072
500c
472a
3d86
46a7
eaff
4d62
2156
4f31
fc72
1eec
79f6
3a96
5189
209e
15ea
62f6
51eb
6d9b
2f79
9d02
336e
0e56
64b2
6fae
aadd
aa63
5b35
b2d6
e0d1
55ce
70e1
05bf
2f76
4189
05de
fcd4
05ae
e302
f1ad
1e72
5d67
dcee
9802
4016
5243
7d22
af02
34da
d702
5d56
88ad
4ffa
6166
5bce
030d
aabf
ce9a
7c56
1d18
17e8
dce1
4e76
6fd5
aaa9
4d12
5077
4dc1
2d76
aae2
0a20
c6ab
6dea
ed02
3876
1db1
137e
4462
473d
5d8e
50e1
ca06
6d2b
6eea
be02
aa49
1e22
3f4e
5bd1
152a
3aea
78f6
6d25
6dc7
70b2
4ebd
127e
aaae
60c2
e0ca
7835
d291
fde8
f6f0
6ff9
b790
3662
aac1
64d2
0a1e
9a0a
5b82
6979
aade
6070
7621
e0d3
5b1f
5093
850a
699e
bb02
aaf2
1912
6974
649e
222a
64ff
e8c1
f0ed
ee22
5b2c
6fa7
7a28
6422
0555
80cb
5d42
2d6d
3df9
aae8
f996
173e
8990
7d52
368a
1eaa
666e
5b55
55f6
0585
5025
3370
e40a
527a
aadb
6a1d
2d42
0a7c
3cb2
5b30
745e
6365
4f4e
6481
598e
19c5
aa93
3ae2
690a
1da6
aada
4e19
6fcd
aad1
4e56
4e32
8b75
2dda
d302
05eb
2b1e
649a
5586
8a02
17c2
2d4a
91ec
04c6
3d7a
6050
1db9
0f9d
4e75
6890
64e5
372e
7576
4076
6de1
4d1a
495a
e402
d7ec
05e5
645e
1423
577e
0a23
0557
05da
98ad
2d63
2a9e
b2e2
7373
d9ad
5b86
6076
4255
214e
3751
9b02
9dc5
1e6a
e20a
3034
6165
31d9
45f2
502e
0831
bd8e
8e02
05ce
1d4e
aae9
396a
5d81
eccd
50c8
526e
5bda
1418
6fc3
50ec
aa17
1e1d
51d9
8190
b88e
4e33
7f0e
30be
c545
f0d3
dc81
64a6
426b
51ea
5b41
fe62
3578
aa27
49ae
6471
0514
50b5
5b62
6a7e
d97f
726f
0f6f
aa0f
aa77
5b6d
b802
766d
3a3a
21be
189e
3d9e
7296
710a
c352
68ad
171d
0b42
aa8d
3717
50a3
80f6
5b3e
2f70
0535
4352
4db8
62c1
2370
ed0a
5d3e
6d09
0f9e
13df
343d
055a
5015
374e
1e85
477a
6def
7dde
4e4e
05ac
4e5e
7b4e
ef75
7be7
b4ad
c425
fb08
190a
30e8
3a1d
24d4
3d98
5bbd
61c2
3182
e5ce
3766
3736
3036
2d1a
ef6d
3ad0
fc41
4231
6ddf
aa9d
4d71
aa51
3455
6d9f
5bba
6179
6d37
4275
a2ad
6df9
755f
1e2a
86ad
3558
c698
1a5a
8bfe
5b20
f00d
f06c
05bb
371e
1a5b
371a
534e
ff98
5d4d
651d
64dd
6865
c16f
c402
1838
64f5
508f
4e15
bf4e
5d6d
3d78
7370
47c6
0d45
600d
0772
20da
5b70
b2e5
3746
6171
6fbb
3516
5531
4d42
5b11
5b44
a0ad
6fe5
6df7
66b9
406e
aae7
2d61
a402
5b03
6e52
6632
43e8
6414
6fdd
f9b2
456d
091d
794e
4279
05a3
6222
5fd3
1dda
6485
e8ea
59de
7161
1a5f
7331
50eb
3132
2347
3737
1452
08a2
1d5a
6443
6fb0
6498
4d6e
602d
6752
50ea
6d88
5d9a
8ea4
4ac2
6946
4dc2
65d0
aa14
4122
3422
4e27
dcd4
611d
751d
157a
5621
b40a
645d
34b2
0d63
fd02
2152
f036
040f
50cc
2dca
6146
538e
a066
1566
f0c2
414c
dcb3
3a19
2304
9702
6f8f
aa6f
4235
8b32
4712
1f09
6fd1
6532
643d
50c3
6ace
6db0
5bfa
35ba
6411
5b25
1e42
c41d
0533
15d1
6296
6135
ee02
6072
7882
64da
7dba
3074
fd4a
05e2
14d2
695c
c1ad
e551
61ed
6dc8
379e
0ad5
5b5d
0556
4a75
ff7d
1876
030e
5bd4
2db8
6e2d
9aad
4b66
6ced
f0ee
3c11
89d6
6db4
49b8
6b0e
8290
797a
3f12
cf02
34b8
64e2
5038
5b46
1529
3ad5
b2e6
64b8
5902
48ea
dcef
6df5
4e48
424f
aa5c
373d
ff1a
3a8a
c302
7d5a
f03e
0916
5d3d
b890
6eb8
6aff
dcfe
4247
1d08
31c9
7c21
f99d
4f1d
a5b6
317a
aa47
aa0b
6de3
4e74
3d6a
1d6d
6386
4de9
ae0a
091e
04be
34d2
15d2
7028
4e35
6dbb
373f
49ea
e5ad
62b8
f0fb
aa95
eb98
4b06
594a
1e25
23fa
b05a
509b
627a
6ff1
f1d9
70e6
61e1
7da2
7896
4aa9
705c
6592
ec51
7745
15bd
e96d
34a1
08ad
1d72
35c2
5d8a
aa06
dcc2
f802
60f6
fc3a
5de9
5585
1f42
4dc8
ca02
5bc1
4e6b
2a20
f502
45ea
58e8
f3a5
4d2e
3dd2
05e3
7352
7ae9
2bf2
4529
4e29
617a
051b
50df
7667
8c67
f702
3b06
0e02
8fad
7c75
aa08
8b59
5b2f
fcc6
072b
7647
79bd
49a2
2d9e
2d7a
78b5
09b6
694e
416a
1525
80c1
695f
b096
fe4d
b390
50a8
159e
2893
fb6e
3442
3734
7d2a
38ee
f0d6
bbe2
761d
595d
7c0d
6e35
05e7
0f93
fb06
6956
2f71
c599
6e5d
054b
5d79
6f86
5b19
4706
16bd
2f73
3c9a
2bea
4df1
808e
484a
5d35
476e
3f26
6d12
31d4
6f93
1311
4d6d
15a9
195e
8492
5332
5b52
f21e
5b33
cead
47fb
7962
c0ad
7b2d
3762
947a
f9a9
ea7e
0fd5
b511
774e
0dea
fc22
26e2
612d
27ad
9b0a
4866
bed9
531d
64ba
fbfe
fcf2
7666
9dfa
2379
19e6
1e9b
61d2
44ce
9062
3745
05f1
05b3
aaa3
736e
a91d
5db9
344d
76c6
09c5
0544
4e49
d7f0
d916
7ee8
4e1e
23fe
5db0
501f
4e4a
6df3
6ddb
601a
5542
db22
e50a
f05d
a392
05d0
50d8
416e
434e
4e77
752a
fc76
7672
6d1a
7171
0534
6071
4256
5dc9
3d6d
05f7
20d5
2361
653a
606e
ddb1
393e
24c2
7532
3d5d
9252
5b9a
5bff
5d62
69ca
aa7f
7e22
7d7d
4d72
2d6e
2599
5d7d
6576
c569
31c5
54fd
0fa3
1a57
60fd
5bd6
7d5d
6dac
5bf5
5dd2
ea5d
374a
087d
3e0d
1d6a
5082
5dbd
7d76
3421
3de9
5bc2
7406
1715
f1f5
5579
30e5
374d
ee62
3749
e0d4
5073
39bd
7461
b198
4a6a
7662
4e38
5c64
64e4
5dd4
ff06
4569
0e32
aa89
1e98
5bc6
1de8
aa03
7b56
9d25
62e8
55d6
e1e1
8ea3
3dfe
1d2f
6ef5
8a0a
5ba2
4dce
7585
1df2
aa24
fae6
7d82
51e6
0578
af90
6da8
4286
648a
306e
64a9
3066
3756
c80a
052b
1575
4dba
7972
447a
8b0d
6fcf
8bfa
8b39
0d46
65f6
5998
7465
ecad
f9a1
6056
306a
4539
623d
17aa
adad
6fe3
70e2
6061
3d39
6fcc
7656
6069
59d6
50db
ab8a
7862
d789
3a92
1e21
08fe
81fc
5d4e
82ad
3d67
dd6e
3462
45ed
05ab
3835
717a
35f6
31cd
f052
5d29
5dde
2eda
dd45
931d
602e
2e14
5ba9
60ac
6425
f402
0a73
1d66
3a47
47fa
4251
5d5a
e002
6566
50d3
fae1
5596
aac7
2c06
5b3f
b04e
2746
6ac9
41ee
808a
434d
2d72
5c50
7b26
34b3
1698
7b7a
4751
87ad
e6ad
71c6
4db2
6436
3739
05b0
6ef6
8b86
07ed
394d
05c3
572a
2d51
0df1
4752
990a
3c36
64fe
4249
7746
6fdb
4e61
4922
4d4e
1d49
2dc6
5d20
6406
0d6a
634d
251d
3e21
0d82
e246
d6ad
7dee
24dd
5908
a80a
f621
673d
31c3
1a1d
7c51
88f6
7ff8
630d
4342
5070
3851
2f6f
fb16
5f3b
1d30
5dd3
60a5
056f
dcea
f62a
7b6d
676a
60ca
aab7
60d3
4367
70b5
4676
aa8f
1aee
70ea
6015
a4ad
6fff
69e6
0f06
eaad
0d6e
7c79
5ce6
f8d4
051c
76f6
3d3a
3d26
5b7d
22ae
3306
8eb2
7946
781e
6d94
0b43
5bb1
433d
8552
aad5
f61a
1d9a
bbea
15aa
6162
8b2c
8bb5
1a5c
aa43
0574
aa5f
3d2d
5976
0ac2
64e1
64cc
7979
1d7a
5c6b
7f3b
aa87
0f36
2f77
c702
6373
3d76
4e96
4dfe
3a16
4335
6a85
34e9
5508
fa96
4e73
3d92
aa53
74c7
afad
4b41
425a
30ae
ff26
3a7a
4e31
5b61
aa58
7ff5
4056
9b9e
1ec6
3715
4237
3945
f965
5a4e
aa8b
094d
2d27
6236
f9d3
3744
648e
534d
8c02
5d45
1dca
76ed
3576
3452
1f1a
7b3e
7c76
3a71
64ee
7d71
0506
0414
3d7e
6d28
3621
9402
5b72
950a
054f
61a5
7251
2b11
6b6f
ee0a
3b7a
6275
0937
6de2
ff4a
6fb6
ffd4
6772
e60a
84fa
307d
5bbe
152d
0dc3
7d2e
5c28
5e66
9e02
f1d1
13c2
5ffe
353f
510d
05a6
65c2
3de6
6fb3
5d5d
b5ad
3430
d2ef
3408
0a5e
4e41
c189
50b0
62a1
f40a
5ff6
5b59
561a
79b6
716a
64d4
4d3e
2d66
7a0d
1852
2de9
3379
1e75
5615
3d9d
53f7
8390
2159
3155
1d67
5064
0fba
6457
dcd6
3755
bf6f
b90a
4e94
5592
366e
6de7
67f9
6fd9
1d4d
784e
ebad
3abe
3539
4277
4e16
caad
f656
1352
421d
820a
7971
595a
6446
736d
5ec6
2f4d
346e
621d
5d59
76e1
49f6
e80a
63a0
1d9e
c70a
7542
3728
674d
ddb6
3a42
1ea6
6fcb
fc2a
3b22
ba02
75ee
f296
64f1
69c2
5d39
ea0a
4062
5d60
5e4e
5d61
6d13
096a
050b
13fe
aacc
c802
8bb3
8690
b311
1eee
15e2
05df
41f6
615e
3d11
1ea2
36c6
c6a8
2b8d
aa1f
66f0
596d
445d
70da
74e9
511d
3932
69dd
7c5e
500f
5013
2e52
4dbd
313d
4da2
625e
2d99
9d31
05d9
2892
8d02
05a9
7ef0
7b49
4d86
473e
22d0
3a7d
f04d
427d
2608
7c6a
4e5a
4820
4136
4576
4d4a
7dda
601d
7708
b01e
1e7e
16d0
4e2b
64d6
2552
770e
12c6
1d41
f1fb
4d79
1ba5
5c6f
69e5
405d
60c6
70ce
8eaa
e8ad
4042
4450
2a71
1e93
fe81
a74b
300d
c3ad
2dfd
055f
61d4
566a
75a2
4d9e
f042
314e
3411
0d1d
698e
d2f0
7c0e
0832
3bea
184f
3938
64d1
0fa1
7c5d
20ce
23f6
3d1a
1d5d
ab90
7d32
7ed3
755e
4075
d20e
6495
92f6
666a
3935
713e
5017
8452
35c9
69d3
79ae
c53a
6f9b
aa0c
aa1c
6132
6367
357e
08e6
3ae8
5ae8
1dbd
2325
51b6
1239
1eb4
0db6
4e11
2dde
2342
fd51
12f6
1956
6de4
f902
44b5
620e
991e
a5d9
3131
f0e8
1e15
5d1d
6565
b126
53a5
aae3
16c2
0503
4852
445a
e2b2
391d
6ede
5bc5
25ea
0d2d
7bfd
3c50
2d3d
5da6
8b11
1f4e
6d06
6a6d
767d
89e0
49aa
2036
e8e2
0dbe
aaf0
19fa
2111
0558
dc8a
2322
3567
5226
1e2d
aa4f
3a09
2e30
2f5d
675a
152e
fcc2
0dae
08ff
480e
f9dd
860a
5d1a
192d
6575
39be
3df2
5b1b
3c1d
5030
0c5d
3d3d
5d5e
254e
0d6d
65bd
7ae1
5ef2
a396
2896
5ddd
3414
62d6
60e1
4012
f80a
4e04
8b78
3d89
9ead
5b69
886d
1fe5
c255
33b2
0dfd
6516
2181
5e21
3946
5db2
7b8e
5d71
26b2
6fa3
6f8b
60e5
2366
3765
fbf6
47f6
1d92
8b24
059b
5b9d
5977
7642
64ed
dc92
643e
313e
dcde
6da4
2ee8
42d4
ca71
5d3a
1fc2
75ba
28c2
05ec
6265
303e
6742
a528
5068
09b2
1920
4dfd
2355
51ae
abad
05f4
5b7e
61f6
5196
62ea
2376
5bea
7645
3af5
cdad
4972
5de7
e502
4a6e
1a9f
2166
26f5
4572
424c
8b7e
30fa
2b70
4d55
4a65
7c7d
230e
2097
5a76
559a
3d69
c6a4
60ae
4599
4df5
2098
4496
6fac
04fe
40f2
0b4e
3d82
fa08
7dfa
495d
2da2
604e
4725
3b4e
1d82
bc4e
397d
23d7
645f
6f88
3632
7346
3c8d
155e
7e42
2a7a
5dda
76c2
f062
30a1
5850
4d16
658e
3d32
41aa
6e33
3a82
c90a
71e1
180f
0904
5e52
2f38
c69b
5d6e
61b8
6dbc
4dc9
f0c9
64ca
93f6
22e2
3161
4b3e
474d
51c6
7ded
64a5
4dfa
5033
2c46
0c49
3574
36e8
8bb0
2b72
8846
daad
53b6
f652
614e
0e3a
420c
9d76
43d7
0fa4
f16d
727a
5bf9
7363
f20a
5e19
0b4d
194d
c533
3ca2
50bc
5027
3bfa
f5f5
1e09
dcda
4d22
c541
0ab3
6e21
15c6
7db3
15b8
c902
c532
12e6
613a
64e9
23b6
5776
f0f6
5eae
7a16
1e3a
8ea1
057f
5d32
306d
924a
3d1d
4d9a
6ffb
1f06
234d
7969
2e2d
7b92
28ba
6973
3465
496e
455e
e541
4b12
657a
b2fd
5672
5bcd
aab3
7850
eead
1b7e
6e61
7ec6
5be6
4e03
05c7
dd2f
4b4e
3dd4
f035
79be
0520
6be8
6f9f
2369
4166
6556
c536
2f8d
e532
f09d
227a
4492
2052
6560
3710
7286
3592
6db7
5dbe
6896
4591
508d
3971
356d
6593
517a
5b6a
3108
dcec
65d4
4e43
6271
c0ff
622d
95fa
f6ad
341d
4ea1
134e
7c66
464e
08ef
2cfa
0f35
dcf6
6d20
539a
f072
e13d
332e
6fbf
8b41
1f2d
0f03
1f0e
3466
8aad
3c66
dca7
3156
3719
6435
6e06
763d
e872
197d
4d5a
5172
36de
733d
dcb9
8f1d
1d8d
ff74
c421
724e
75ce
2f6c
5199
81e2
4d08
43ca
0f99
6d9c
3a1e
7c3d
030b
3d8a
7d5f
6079
5b0f
577d
25de
5b4f
f0be
8eae
55e6
15b2
f021
1b4d
317e
2d4e
7932
5342
6459
b411
096d
1e5e
2b26
802d
e00a
4de2
fbad
65c1
5dc2
122e
21fd
416d
49f1
5b65
ce0a
2021
4e08
65d1
674e
4172
7b15
162a
2d2a
517d
734e
8b56
656d
058f
12ca
355a
aa74
1bfe
7c6d
455d
1af6
619a
346d
59e9
a6ad
6477
1f1d
f3ad
aa34
686a
5569
1e96
39cb
75ab
0ded
1263
3d12
15ba
726e
50f7
5d8d
d62d
6796
6749
c607
0560
641e
3d71
b20a
39c5
65ca
0f4e
1334
5de2
b48e
3772
77f9
4995
a60a
785d
7fb2
aead
6356
7d66
0307
aa8c
34aa
1209
2135
6c06
34be
4e0f
5942
6deb
d599
dcaa
36be
aa97
501b
640e
f56c
05a8
46d6
45b5
6492
2f6b
aaeb
8789
4a72
7d45
7d9e
6d2f
3533
6247
512d
5db5
66f6
1e32
2749
5d89
5972
6325
53a6
1f99
35fe
0dc6
059f
5d06
65d2
288e
d0e5
84cb
7b09
200d
8be4
6170
598a
6d23
86dc
9df6
3dda
d90a
274e
153d
671a
64bd
0309
0bfe
4239
3e7a
5bb5
4d61
63fa
61b2
393d
b1d3
505f
214a
6062
6945
33ff
dcae
5094
4896
511a
a6e9
40da
4007
6fe7
2d52
05cc
3af1
0fc6
79d3
31d6
4d3d
5b4c
591e
1d3b
a7ad
5087
aa18
0dce
8b3a
71c2
45b2
3a9a
6e93
2d96
2de8
7db8
5078
13b7
19f5
373a
940a
50c4
234a
f1fa
5dba
2621
2c3d
6441
3a9d
514e
7752
0965
6016
6174
ce0d
36c2
4176
5272
7fb3
e602
993e
756a
3192
0dba
4129
3729
64a2
558a
ca5e
1d2e
ce48
5161
642f
5b6f
2dd9
64aa
6206
e050
154e
aa2f
4956
5125
5da2
05d7
7089
09f6
aa3b
f64e
495e
319a
effa
cf63
2d4d
9581
363e
52ee
2ab1
0796
4159
381d
7cb2
a572
50fb
9168
6f87
28a2
45c6
45b6
2367
3d2a
2dfa
5298
6034
385e
ddca
574e
61c6
6444
f0d4
7266
332d
60d4
8f3a
42fa
5f1a
4356
9911
375d
7be8
5bb8
6672
31ba
6499
1746
5c36
333a
5115
45fe
b332
1843
71bd
f4ad
3646
2b4e
69e8
1ad2
3445
34d6
807f
4d32
3a62
9d4d
1345
1dc5
6372
7c45
55ee
4a76
aad6
3a7e
9bad
c2ad
2b36
641c
8b4a
31a5
3df5
4f32
2b16
d7f4
475a
69b6
65ba
3369
69b5
1562
64b5
6536
233d
5eea
5346
2031
693d
2b1d
2bf7
2f78
4d47
d5b6
0f2d
197e
1db8
46b2
5d9e
5b4b
5d96
34c6
0f9c
1deb
713a
e89f
394a
7d46
3aec
6416
4564
1d0e
2f32
6447
e560
4216
a34e
42fe
3c3f
04ba
a057
c00c
664e
4306
74dd
5b8a
760d
6971
147a
5175
d2ad
39da
5c67
232e
0712
0ca2
851e
3087
0972
25ca
753d
72e9
aadc
1d98
5dcb
0962
5d93
6fdc
51fd
65fe
533a
053f
7a7d
78e9
3d3e
6fb4
2e4e
71d9
879d
2d5a
7876
4962
76bb
7d65
4d8a
fa56
dcc5
62d2
2086
4582
f1f1
1e4a
675d
496d
79b5
5d7e
0d51
40a2
626d
2176
46ca
1fd2
2d62
64fd
5b37
fcce
45e6
7216
62c5
2f11
5ba5
f0fe
624a
671b
5d11
0752
05f0
4099
1eb3
565a
61e5
3d15
4566
628e
70fa
3a86
ed16
1672
e96e
61f2
1d3e
7e21
b272
444a
fce2
d10a
773d
7335
16b2
4756
6186
774a
086e
9302
a102
471d
50a7
7332
5b43
b402
173d
c41a
0d68
4daf
767a
69bc
3e93
691d
4716
4d65
756d
464d
3ec5
4e1a
2f42
6493
762b
3931
6326
0706
7d1e
30f2
058b
2262
4f3a
1d6e
8e85
0c16
54ca
35ce
55c6
6cfe
0530
6464
2d3a
155d
6712
5beb
0a3a
aa94
75a6
6496
3db8
bfad
28b2
728e
5d5f
0db8
dcf1
3934
1686
3a4d
2c50
7935
4421
db81
18e6
6a42
5d72
3d17
4da9
6d2c
34fa
3a0d
3871
4dae
55a2
e450
2d21
6669
6361
5d65
372a
7e16
602a
af1a
5d82
e3ad
2d5d
6065
7b17
ed91
6de0
515a
c371
392e
2baa
3a9e
7f4e
0fc2
37fe
4d7d
16fe
3a3e
494d
85ba
6faf
7d99
6292
492d
648d
33e2
f03a
4b4d
4e47
3656
6231
5d66
60dd
51de
1dee
426a
1e69
35b2
7bd3
ed86
05e0
7609
7e56
59a6
30f6
63fe
626b
0d27
b6ad
6345
aa07
70de
612e
208d
05e4
4722
2f68
4e07
62da
7535
774d
2fbd
dc8d
525a
4c1d
4ef2
3915
430e
79da
3da5
83ad
80d5
4273
1d63
7c4d
215d
5f26
5057
b62d
19f6
25d2
924b
5ba1
3735
3976
4b55
64b3
6415
4636
6a3a
642e
2da5
b08e
19ba
5d47
519a
dfad
3a12
4ef0
353d
42ba
1c71
2096
8e21
3dbe
e4ad
28ce
dce0
6262
5bf2
e914
5b3c
23fd
199a
5bae
2ffe
0577
2d6f
052c
18f5
735a
3ecd
7d3b
dbad
49da
a742
a49e
5a56
6850
4729
5f55
07ea
dca2
8f09
4e98
f7ad
2284
aaa4
2c08
b9b3
553d
fcad
510e
8cad
574d
1b19
4d4d
b8ad
4eb2
3076
2165
0982
40ff
6d34
621a
4e12
5d1e
20c2
51d6
3947
81ef
752b
1bce
5742
f5c2
1523
3e32
5989
636e
2dce
3316
aadf
288a
1b33
e5ba
ff10
71bb
7b1a
6c8b
64a1
7675
4d41
fc4d
63d3
f01f
20b8
4ee6
75d3
f3e6
4ea6
3a52
50f3
4e7c
3ac1
efe5
20d2
5bcb
7361
39c6
41b5
3026
bdbe
0553
4eca
41b6
5116
672d
61e9
a293
8816
dcc9
6efa
5a2e
5b18
f09a
7be9
21de
50a4
dcf2
304e
93ad
c6ad
594d
5d7a
39f5
7c4e
40c6
4b52
6dfb
c06f
4925
12fe
5b9e
4d8c
3196
79a6
1e06
54c2
4514
1251
6433
433e
593d
4893
f251
3b52
6fbc
fc48
44de
312d
5060
65b2
ba7a
64b9
611a
3496
57fe
a01e
4597
62ce
50ac
a5b8
339a
7d1d
2dec
41bd
05ef
7b3d
fc6a
692e
5b99
1e31
333d
f0fa
60e9
2d6a
6dcc
a7e7
3aba
383a
516d
9843
5ef6
fa6e
41b8
4532
053c
331a
5632
721e
2082
7dbd
4d09
040e
7b25
5d95
4b1e
aa44
51ce
aa73
1e4e
594e
640c
92ad
d050
6545
b596
7316
39ca
3dc9
36f1
6dd8
a5de
3552
b475
521d
1e5a
6407
7b0b
f551
eee5
1de6
332a
5f7a
3972
417a
5191
7655
473a
d7ef
70ee
498d
4aee
7939
61b5
8f99
5d25
672e
0a7e
aa37
6662
5e72
673a
6692
7966
432e
4ed4
5e6a
6311
dc95
4132
dce2
5962
7169
4fc6
139a
2089
3b45
4999
6716
1bc2
3d75
765e
7dd3
0f1d
3d62
6212
6246
42e8
fde2
6feb
aa4b
4e7b
7d4d
392a
1696
8b52
fbcd
05af
6b2d
099e
7b46
5020
219a
3906
3060
2df5
41ea
5b0b
6b1d
50e0
4416
5dfd
dcd3
505b
4ab6
6449
2596
79fa
e8a2
62d3
6578
35dd
e886
80ef
0d11
3a70
64f0
1947
3ace
3709
aa2b
e0cd
19bf
8b77
1ffa
4e6c
2220
8876
65de
567e
39c2
40ae
8f14
66e2
6762
e9b8
5946
0c79
21ae
6ee8
5b13
4911
3d4a
5be2
aaa8
4203
3ab7
2676
2dd6
136d
64c1
fd04
c539
e90d
1775
f0d2
378e
716d
c7ad
509c
21a6
8b4e
3dce
d8ad
5f1d
12c2
5b04
aa04
1b36
7976
46f0
fe5a
43ce
631d
4b6e
7762
4135
79a5
962d
7b29
712a
2314
7d67
4e0c
55de
7866
6fe0
731d
a202
3a85
90f6
6b4a
dce7
70d1
53fa
0587
499a
4d96
4452
6ee6
2d65
7db6
19d5
6932
6586
792d
6c6d
898e
41f2
3ae7
aaaf
166a
7d56
1596
2d95
aa60
5a3d
3e4a
3d19
414e
5bdd
b2e8
440e
41ae
632e
347e
197a
39d2
64a4
05c4
3f19
3dd6
1d8a
8098
4f36
5f4a
7aa2
289d
7db2
3725
451d
41ba
f016
1ebe
6c41
4c0d
766a
2a26
d1ef
4f43
1945
19e2
1312
71ea
0b1a
f0c1
b645
3d65
f086
17ce
9bfe
518e
0d5e
34ae
8fbe
adfa
563b
8dc2
f01d
5b71
0d4e
35ae
ff2b
2d45
50a0
80ba
4a82
37ff
dca5
563d
8e9d
4258
572e
3a4a
7dcf
0fbe
1dc9
9aee
726d
431d
5df2
1dba
0936
353e
ad0a
50dc
3a4e
4dd6
49bd
451a
f0a7
cfad
4212
25c5
5dd1
397a
c535
3f92
2d9d
f9ca
158a
41fe
e0cf
1f3d
556a
449b
453a
2450
7519
20d6
42c2
1d75
33d9
dcba
2576
2d75
7e31
4f2e
f8ad
6b03
216d
1e26
3882
4d67
234e
a11d
1d8e
9e92
19fe
3d31
0d1e
4486
344e
1306
2d2c
6122
4ccc
aa7c
1952
a31a
e5bb
3476
6491
d3ad
15e6
342f
564a
a312
5565
172d
79c2
6008
697d
1556
258e
39f9
3d52
aa3c
7865
3dba
1ed1
1a32
7d79
9050
5306
fbee
6d0b
aa48
aaf7
6196
34e2
f058
0ae8
aa70
aae4
41c9
4034
6e81
f9a8
64c9
1e29
5bd9
6b32
4361
3426
3681
6ae8
48f9
89d3
91e5
785a
5bec
1407
3d5f
1682
7f74
5149
15dd
79ea
8b47
6352
46c2
3d5a
1dc1
6ac6
5d77
434a
aaa7
2326
6a46
641a
65ed
2ce7
62d4
aa78
2b71
3142
346a
fc0d
8be3
7c12
628a
2d2d
232a
2e21
79fe
3336
2b42
7c29
65a5
7179
267d
34a6
7f6e
3b62
6129
7ef6
37d6
6fc7
4eb8
34bd
3d66
654d
7616
5b88
3d4e
0d4a
a10a
dd0a
5f2e
8e98
4d51
1266
5696
442d
8f22
6036
5b53
5b7b
15fe
6563
50fc
42ee
a5dd
169b
5a55
2319
7c64
2b0d
61f5
1da1
3db5
6999
5132
7565
207e
0da6
6032
371c
457d
384e
1e3d
5b81
48c6
50ab
b2dd
78e2
dcb1
3ab2
6e42
494e
45fa
f411
76ce
79ca
793e
62fe
6448
5ac6
4f44
645c
48a6
15f6
3352
7c25
5555
15f2
4765
89d4
2656
560d
0597
7c33
604a
89d5
60fa
3021
3953
ecd2
357f
cc0a
364a
9dbd
711d
253d
486e
1d45
5de6
dcc6
5db6
3dfd
766f
3775
38d4
4e64
7469
4165
8ff6
f102
0524
423a
7936
aa1b
5179
a096
54fa
5dc4
64d5
da0a
1b16
7c47
2593
7472
201d
5b17
514d
85f6
0aca
3579
d07a
e8de
634a
39b2
352e
3f0e
b2d9
34f2
3afd
4e59
fc7a
f10a
5058
791a
5da3
0a57
4971
7d47
4d7b
2bb2
5146
3def
400e
e9e2
e32d
d7f8
76ea
1735
7b1e
496a
373e
6039
aabb
3146
3d9a
c5a6
4c96
5781
4ad9
f1f9
4dbe
8493
3e7e
40e8
4e63
7dcb
5daa
75b2
42e9
8b51
6bfa
1392
25b8
79a2
5bed
a41e
41e6
617e
fb0d
0a76
61d6
bbd3
793c
63e8
7b0f
41ce
88ed
0dcb
3dc6
e0ce
5a5d
fcd3
ba0a
f43a
4d93
1da5
5d2b
4d33
64b7
0dc1
4575
1d55
4349
6182
236e
5262
6ed3
2d15
8189
7d7a
0e4e
4f4a
76d4
30a6
3475
66a2
19cb
614a
15ed
1e0b
2d22
5b93
7bf6
5d46
2dbd
8050
431e
89ce
fdd2
8102
4a66
4755
a15a
373b
62a6
6676
3738
57f6
64ec
3a3d
4e3f
f1ee
6cba
b602
755a
6006
5dae
071e
4d75
17e7
887e
0f56
2a6a
74bc
4806
f08f
3a06
5182
5dee
35e6
19e9
aa4c
519d
7df1
1ef2
75c6
2d79
c8ad
409a
0df6
1b32
625a
1d53
4735
0dee
1ac6
0b46
28d2
056c
bef7
732d
618a
81aa
6295
6487
972a
b81e
5655
47ca
4d1d
12b2
5952
0b36
597e
3412
5119
a9d5
4b3a
7bd4
b10a
79c5
5e6e
4466
4fa1
5b75
6d27
aab4
4e25
6c66
5516
a534
b3ad
2546
4233
342e
77ca
0d56
637e
4d36
64f7
040c
2898
8937
6526
90ca
fb56
36e2
6517
729a
407d
2a69
655e
331d
5252
3a13
1d10
7619
5662
95d3
c5a1
676d
3556
1ef0
405a
52f6
4e82
49f5
8b03
52ce
8b6e
4d82
4336
1ec5
7b3a
3d29
55d2
7a1e
4e30
49cd
bbad
415a
6463
2de1
61b9
fc21
db46
eb06
f061
efff
f06a
8510
09fe
7f3e
2682
2be2
97ad
5dd9
19dc
3753
6362
946a
5b3b
8bca
2a06
3d96
61fa
2311
1de9
6522
5971
406d
646b
255a
4111
e3ef
70aa
f99f
6f97
3d99
4af6
3ae5
2f66
581d
074e
d80a
127d
6031
647e
1eea
5b74
7e6d
376e
1896
470e
5b23
2dea
fc5d
3565
4a59
7375
4268
fc39
45ca
191d
1d5f
0407
0d7e
05d3
7c72
195a
5b28
5ac1
52b2
4732
40f5
8b49
d91d
8f1e
505c
4253
395d
3486
5bb6
3b2d
4304
05f8
467a
1ed6
0dda
1756
21a2
5192
396e
3de2
8baf
7618
5a1c
1a72
e962
b165
3434
cf49
2f1d
6336
56f6
2f3a
1d35
46e6
7d3d
bb2a
551d
6571
538f
0b82
9248
6b66
4df9
7f9e
f7ce
0413
217a
7269
603e
4c98
15d4
31be
4d9d
507c
67c5
79e8
7d59
3c5e
3d4d
633d
3371
4278
0946
0f91
64c5
4052
f9a0
4e37
8f26
4e8e
2175
6b22
fd52
7a0e
3d85
35d2
1e12
1a66
697e
5c5b
4d8e
5dea
6d03
5f4d
69ae
5ee8
318e
f622
2bfe
7ff7
4d89
6b61
6b85
8b46
8f3d
3850
6408
1aea
19c6
ae14
452e
a902
30d4
426c
26a6
791d
1a2e
37ba
69ce
493d
776d
c40a
fcba
2d98
635e
1ed4
23ee
a558
5bfb
ab46
c9ca
34b9
9b16
71ae
655d
627d
5bbf
a242
4912
1d99
5d99
f548
1e19
4f0d
7926
60de
4c50
64d9
8012
4257
1e14
4998
2fb2
51d1
0d98
1d3d
5d12
3759
aaf8
0e66
7489
4eb5
3d41
3999
2f4a
40de
1817
a57d
0d75
5522
3c16
7c49
5f56
0a45
b2e1
f90a
0dc7
330e
20c4
4955
5996
4748
aa64
f5ce
e8e6
331e
59ca
eac2
1528
50f4
8b55
6bfe
3d0b
4df6
7eba
21fa
902d
3cf5
5d2d
3562
7674
617d
73f1
438a
233e
4793
5471
9bf6
aa20
1a36
67f6
030f
239d
22f5
3163
5546
7631
f0ec
250e
092e
6fc8
3f2d
6168
f08e
6022
6741
62e9
5e9e
88ca
e3e0
0b3e
e096
0cd5
25da
1da7
07fb
aa84
42f5
566d
5b96
5b2b
7322
7d11
7c65
e5f2
220d
8ad0
a962
51b2
2572
413d
618e
7096
9060
f74a
3b12
1736
af3a
515d
f026
0fce
5152
5866
5dc5
648b
5d91
55d4
7b2a
6599
4d29
6fc4
9253
5556
5bcc
1752
30c6
b621
763e
5b38
2a2e
3f1d
50b7
2f52
7d72
205d
0d2a
6427
09e5
f5d6
7d62
5b07
656b
31de
41e9
cb02
62df
4a6d
626a
6f9c
1e8e
0ec2
4f59
1c46
52da
395a
0c6a
3f78
5b0c
6564
f093
5023
665a
6ad6
160d
5987
423d
1d47
3747
76e5
0dc5
8182
0f95
5e95
1976
3769
1cac
69e9
50b4
218a
721d
4e10
7dc6
ea4a
2d0d
1e8d
44d6
64c3
0d67
45f5
1372
2daa
5fe8
16d4
60f2
1eb2
6a11
3ed2
64cb
84f2
7de6
5f45
4d6a
4aca
7b79
4579
154d
6a56
5e79
2d47
6776
61e7
370b
8eb3
28fe
2ffa
0999
34c5
0508
7c35
90d6
1376
258a
9179
6e75
e6b2
5dec
23b2
6b06
15a3
3fe2
45d4
7706
1512
15a2
4dda
0a5d
5bc9
8b17
670d
7739
339e
3139
3b56
d902
4226
49cf
14f1
8f08
1972
0b1e
e912
45a6
46fa
1e5d
746d
50e4
3b4a
1f31
1cc2
9726
4e17
614c
19bd
37fd
092a
6478
5e12
0a42
5b91
2aeb
4942
347d
5922
1e1e
0d39
4d31
4e3b
71b2
4dc6
15b5
417f
553a
bec5
757a
3199
1dc6
f00e
84ad
60ce
7c1e
b102
422f
f29e
8be9
84d2
7a7e
1732
4782
506c
f9a3
308f
6049
396d
6e32
a1fe
8b45
7b4a
25c6
63ee
654e
422b
7c39
5f31
4796
1328
3773
f0e6
f0f4
4c99
196e
4736
25ce
34f5
c53e
14d6
1efc
35fa
3dc1
76b2
315d
7247
6423
71dd
5028
659a
5be5
2f0e
71ce
0926
4f7d
4979
7eb3
5f3e
3145
45cb
6951
3429
27fd
6276
0594
52e6
8862
a1f6
1dae
23c6
9fad
5d98
4e2f
e7c6
39b8
f095
4c52
619e
49a9
6cc6
3bb7
49b2
7176
167a
6aa6
09fa
765c
418e
61ba
f1f6
d2f1
51ff
151d
3893
28b6
70c6
8b35
0dfa
d1ba
b197
ff0d
e2b8
133e
4498
c986
4d1e
3944
7d75
193d
718e
5235
73e9
7b8a
15a5
7ae8
9f9e
88fe
2512
fce9
5162
3572
564e
7b1f
1b21
3481
2710
4733
3417
49d4
dbce
6665
49d2
4ffe
fc64
6309
6497
7816
2d69
6259
1db6
aa68
e0d5
f9de
1966
3356
0d3a
6d1c
5343
8b09
7569
6366
3db6
255e
2882
16b6
3a65
309d
6df0
402e
f0d1
6533
f1d6
7279
2f74
07dd
a9fb
4065
5c8a
5608
408a
1d46
7541
0b97
aa38
474a
7c7a
75ed
69be
6055
7daa
4b70
f9c6
f5e2
40f0
73ec
5df5
2b62
2d9a
349d
70c5
5c68
1d79
354d
344a
59b6
3e3a
fd8e
359b
1729
5752
1b09
4552
3ada
9f1d
34ee
3ffe
35a9
82f6
5e1a
4e1c
3492
645b
457b
f017
0b96
b65d
49a6
db1a
f0e1
1abe
66ca
3dbd
6238
6075
7b82
5ec2
3da6
4dc5
7a32
8b12
5024
4cfb
671e
76ee
d4ad
1723
0504
1255
7c57
2f2e
217d
4621
4426
49c9
4c5a
66b2
1eae
48d2
41e8
0969
2d3e
5153
2d85
502c
aaec
3ad1
2df2
3926
899e
04ea
7a14
f01e
9c02
05bc
6696
634e
4caa
0584
461a
34f6
e52a
34d4
8022
61e6
a456
1599
ed0e
1655
69d4
45be
42b6
3dc7
4171
a5aa
7f36
4355
057c
4d2a
441d
1846
20ee
1dd1
bd70
5f16
330d
786a
736a
603f
1eb9
70a2
c98e
2ee1
5e62
2d16
613e
4747
1e39
1803
0855
f57c
6fa4
4e5f
ff16
1b3a
4d39
7b0d
1447
61fe
5126
1d78
4739
42be
0fd6
1f85
80a2
69c1
a56b
369e
e9fd
2bfb
472d
96d6
1afe
2532
8b31
491a
3f53
387a
4d11
39bf
3de1
7dfd
1e7a
8b04
8889
74e8
dd2a
589a
9dd3
09cc
1d59
20d4
3596
4b35
8b7d
6573
f0ae
dc82
6aed
70c2
6282
0939
1d62
44e6
491d
4f29
7098
8f39
176a
6975
7f0d
cff1
34d1
1e9e
59fa
7652
4263
2665
4731
b03b
531e
255d
b94a
13b1
67e8
dce9
72c6
21ea
377d
4629
1db5
1de1
37f9
1df5
60bd
fd3d
72f1
8eb5
51be
5293
6df8
7da9
1f26
3e4e
a17a
3ad4
30c9
518a
47fe
5df9
70f1
60fe
64db
75af
48d6
4e7f
51da
3da2
449e
61fd
94f3
efad
73f6
3b3f
a5d4
60ee
1e16
56d1
0dca
7c61
4718
1406
7ee4
55ea
5da7
f2be
8856
e8fa
35f5
0b51
f085
1e8f
3433
7d6b
0d42
19aa
730e
65fa
40d6
8f4e
2d8d
334e
723a
d972
5512
6e29
1e13
1289
3866
4eb6
1f4a
fd96
7606
3ab8
15ee
1697
61a6
498e
79aa
70ae
1531
70bd
3949
231e
21c6
412f
efb2
5bf1
2df9
4da5
5536
6035
7a72
40ce
65a2
1e76
7bfa
09ca
7c62
71f1
3966
49a5
16bb
4e28
5ec5
74ed
81ed
834e
401d
6014
1549
71c1
f011
7941
4553
586f
3db9
71de
13ea
656a
334d
5f0e
305a
632d
fd4e
0d8a
0d7d
4797
3ade
7c41
5c7a
1d93
3b3d
bb32
3545
6403
33fe
0870
45ba
28e6
620d
7959
65da
1c96
b19e
31a2
0d8d
81bd
2dc9
aad0
1e7d
429a
608e
eb4e
1d61
3a5d
4987
514a
3511
1579
173f
2224
5165
0304
f03d
42ca
0f3a
444d
3446
5d6c
e722
4d91
6396
636a
75e6
6866
151a
2106
194e
4b47
814d
fcee
bbfa
3456
3da1
0d4d
ff32
2d93
444e
254d
8f1a
2f62
be0a
609a
5112
ea03
3d84
40f6
6a7a
a344
0981
7eed
1a0e
2ae1
28c6
513e
1aba
a956
49ce
7421
781d
0fe6
2dd5
40ba
16f2
219e
bf3c
58fe
6582
0b26
3d59
7852
fc69
0daa
9c2a
cbc6
262e
51f0
345d
5552
4b8a
54d8
51aa
dcfd
f015
60be
2b66
2312
76ba
6082
0e16
64bf
523a
224a
5a5a
3326
7c3f
5269
9e12
5d36
4d14
4715
71c7
b07d
3dcc
16ea
25b6
85c2
19ea
5d85
734d
5808
8dcf
8b0b
f522
62ca
fb1d
64f9
5e2d
65b8
77f6
6a92
c4ad
124e
fcca
e935
cd0a
5ffa
5159
3dca
6529
302a
6c0e
1516
3c7a
273a
21e6
566e
1916
aacb
6489
35ee
088e
1937
5cca
742d
758e
7b87
1e79
4d15
5bbc
7b36
5dc1
3167
2051
4248
55f2
3796
6539
1782
73d3
62c6
693e
5eee
5aea
5f42
3144
751e
4026
b052
2139
177a
648f
0ffe
3e0e
3e52
3aa1
0dd2
4559
8008
7a76
4bb8
7814
4daa
661a
bb1d
2f2f
606a
7475
e66d
4ace
1ebd
6b4e
f94a
0c50
3461
e95e
3d06
196a
660d
2162
4e70
7625
2f5a
f0a6
39a2
3ed4
256d
3ab6
7e66
668a
5f41
40a9
4f2a
172b
aa88
4ebc
2186
0d1a
1dbf
259d
7f19
8f11
7d29
629d
2d8b
1d5b
b9d6
3aca
0910
0dd4
dd99
65e5
4e34
0dcd
ed92
459a
357d
4341
15fb
1536
626e
3d77
5d75
7c2b
0f86
45b1
b050
f99b
6d04
6332
4708
88c2
3ddb
165d
190d
303d
f1a9
666d
b2e3
d7ad
ff5a
5ee9
8e1a
097d
7d3a
38fa
2daf
05a7
2182
5373
41f5
770d
5ece
fc6d
ea02
70b6
1b42
4ab2
229a
2066
b2d3
7b5d
6341
c3a8
7136
38ce
f732
3dea
4522
5932
614f
2a12
7742
616b
6017
4e53
4316
345a
f397
7a4e
25bd
5cb6
508c
c062
2df1
60d2
2f36
c646
63ba
f014
3fea
3c93
422d
4719
3d88
166e
4741
e15e
f9b9
3175
31b6
3c92
dc85
0b1d
dcbb
56d9
4319
1709
2d7d
420b
4f16
0945
59d5
5dcd
8b0e
7a73
af1e
1d32
6dc4
69bd
6b2a
c726
5bde
2dcb
7d6d
1325
6942
fc4e
2d74
3d35
534a
4366
1f2a
9116
1847
2dd1
8b15
6322
501c
37ea
b439
45d9
61aa
8a3d
fc46
1d65
3525
3bfd
7dd4
46c5
22c2
95c2
f1e3
45e5
511e
5652
0f31
519e
58b8
3be2
3311
7256
5549
51cd
a63a
78ce
6745
7321
51b8
1b7a
4fae
6a06
b94e
0deb
5545
0db2
fcd2
e93d
09dc
8dcb
4db9
0987
39ae
4d21
307e
259e
59cf
417d
643f
26b8
2f4e
6832
59e6
6413
c07a
6342
6579
5ed6
910a
554a
573a
5965
7679
21b1
355d
7821
462e
3c76
dd98
4c21
8f3e
3029
1742
1b52
232d
b333
7d81
365d
19ee
f033
465d
a934
3136
633a
3a21
6706
5d3b
f60d
6a6e
7142
5d19
512a
38b8
56a6
2d81
aa10
4932
42b5
551e
2e62
5ba7
7561
595e
3d91
0dde
557a
1dbe
3577
3d25
16ae
224d
5f32
2dba
198a
8cf6
76b6
1a1e
2178
647b
5afa
0d41
47c1
642b
1d39
449d
4d3a
4de1
b53f
2f16
5c96
31ea
28d4
0762
e0cb
3beb
0c9d
38d6
bf0e
2c3e
4d25
45ae
4772
3b64
2336
3ac2
880d
5b73
e8a0
635a
3e42
fc1d
4989
2056
349b
724a
4370
ecb2
7dc9
42fd
7963
69e1
1b1d
399e
7d19
55ba
60fc
3c6e
315e
5d22
0881
57a9
4221
7bda
fe21
1cca
bcad
15da
76d6
7d9a
5da9
40b2
0a92
435a
211e
4df2
f1f0
fde6
603c
3e8e
2f39
61a2
4ddd
573e
5251
62fa
6c5a
88d3
45c2
6559
7a86
30c2
302e
21ed
2dee
6a8a
59c6
154a
5e0d
271d
9a4e
5bdb
7861
aad8
f0c5
e0d2
5f0d
1a26
4db5
4dc7
9cf2
e706
37f2
608a
3ae4
5bd5
5da8
6437
1a7d
1b2d
166d
2ed6
557d
3925
46ba
561d
2ae0
7879
f0d9
62e6
0ff9
64c8
0507
26ae
a01d
1ea5
7dd2
e9e5
6c11
6004
6ece
4aba
2d73
28de
1ec2
fb4a
c53b
408d
16de
44e2
1582
6fd0
4c08
152b
56de
604d
231a
5baf
898a
dced
1e6d
5ded
64df
7de1
15ab
52a1
714d
6769
c202
184e
fc45
1598
556d
2b7b
b2ee
4d49
5088
4d38
5d21
5506
2b1a
34cd
4709
640b
4e8d
4f4d
e1ec
4516
478a
dca6
4134
f076
7cc6
432d
2345
fbe7
398a
eb3a
3f32
7856
512f
53a0
761a
1d44
4c2b
ef3a
4419
6077
5572
552b
6251
38f2
347a
f5ea
61f9
714a
3d6e
f025
8f12
09d4
4e9f
1f45
4982
0fe8
76fa
4f11
bbae
f997
2146
3129
6046
1866
6a35
5d41
1dc2
7b21
0a61
3f45
4933
2b25
6044
04d4
49e6
4536
3c96
1fea
6596
7bce
46f5
1e91
2fff
7b76
7b7e
5dd5
a51e
5185
6b1e
852d
632a
4926
6b70
9de3
3f46
525d
5566
69af
4b32
1b62
345e
7ad3
6dff
5526
79e6
1e52
7842
3a55
5906
3d55
1d91
617b
1ed9
664a
3c4d
343a
3b0d
4fa6
2375
b88b
426f
5b1c
bbe1
ccad
1ede
3081
497d
238e
616a
31a9
3542
4a6b
082d
19f2
61e2
94e2
380d
951d
3add
69fa
3d46
bc21
8bba
9196
8d55
3469
dd02
5372
7721
746f
0a66
0fa0
1e95
0b2e
ff96
7996
5276
499d
56c2
71fe
2dcd
420e
1739
167d
602b
7c36
5fc2
ff2e
3b1d
8eb0
39b3
1995
5eaa
6a7d
3b94
64ab
455a
a58e
7b4d
4162
0dd3
7639
4bfa
5255
99f6
779e
c41e
757d
8a06
b902
2206
856e
130d
3585
5a12
1ae6
0e2e
6ade
7189
8f0e
377e
6856
269e
8f75
6159
f04a
0b35
071d
53c6
4b3d
1d25
e9e9
66e1
7c63
fcf6
12f5
4632
e66a
f942
44ea
192a
dda6
62f2
5604
6ddc
4fff
f432
ff1f
51f9
59f6
42a5
3195
8ae2
6263
5f1e
2348
62ae
6b9e
d402
4e68
663a
1b15
7716
4ed6
5f3a
f0b2
565d
1a11
3dd1
d20d
e71e
4179
79e2
698a
4325
5b78
806d
1dcd
a73e
bbc6
1f12
497a
19b8
3186
5d1b
b1e6
229e
dc96
6541
30ba
71d4
692d
6e67
3f0d
3cc1
4991
4d81
1450
f08d
5c92
15de
259a
7b11
8dd3
342b
7c46
6379
797d
0d5a
39a6
3185
4234
09ce
6916
7146
1d81
168c
aabc
632b
641f
07fa
345f
5a7d
fe42
2f3e
0d59
80f1
4ed5
859a
3d79
30ce
314d
472e
419e
2db9
a06e
3aae
2a7d
191e
997d
0d12
2b0e
6711
4da3
c581
413a
2726
1d7e
8faa
133a
5d2e
8fed
74ba
7599
9981
8c49
f1de
6059
3efa
fb36
51e2
3a45
5b48
5f12
c9f9
3db3
3d61
1d2a
ff1d
80e6
5204
2ab8
3b7e
5d55
8d62
129a
0b16
60b1
794d
e5e8
4581
7c2e
13d9
31b1
3116
3b4d
47d2
36f0
7c10
71ba
0915
b50a
83fa
4e9a
1ade
662d
1b46
75ea
2f3d
0862
0588
3f42
081a
44fa
9036
795a
45b8
3981
b60a
f1e9
0c72
dc86
168a
34c1
4eda
26c1
7751
040b
76fe
6a4e
2116
7e49
1979
7329
f067
178a
2171
6b4d
3f5a
13c6
a9ba
513d
7c19
05fc
1eca
5e5a
4d92
924d
7232
471a
7114
70b9
40cd
98a6
4c75
0b29
8162
427b
5c4e
1dea
2099
ab4e
6682
f047
4db1
04e4
f069
596f
1ff5
f9a7
050f
a3fe
412d
318d
0d9e
dcce
cbad
1e86
07f3
2bbe
2de2
5ffd
5f09
335d
12b6
20c6
ea2d
f95d
7595
1c1e
1336
59cd
3f1a
b11a
3962
6115
f079
3af0
3703
61ca
f1ff
23e9
75a1
7596
2d09
6a72
0d16
15f5
7252
89e3
533d
4eab
6ca2
4ae2
f9db
9919
2ddd
37aa
62e2
3ad9
c749
51bd
5d0d
4a5d
70d3
4e99
cfe8
6e4a
4762
c53f
dd76
30ea
8d56
341a
4571
35d4
76b8
4a69
3077
2ecf
6569
1a6a
1c81
1527
5a14
2d49
7975
40bb
3aa8
2ab2
0896
79cb
814e
64eb
125d
16a9
60bc
b769
df3b
5881
4fbe
45a2
2a16
de7e
5db3
0f94
2ddf
4721
2db5
311e
5144
dcd5
fc7d
4e44
261d
0846
6470
7592
3991
2e12
1a14
5b7f
526d
4264
4ffd
4f22
f54a
36fd
615d
7dd9
34ba
466e
3086
79b1
eda2
625d
63e6
69b2
7d61
80ee
56ba
591a
15cb
4db6
21e8
7aba
0d8e
5da5
7a96
dcd2
7696
30b9
2a56
2252
8836
76d2
1efe
3f56
e88e
7da1
4072
7579
0d9d
251a
252e
ea16
e915
486d
73fa
0973
78a6
94fb
5d9f
ffde
40fa
80d4
fc5e
99c2
42d1
33f1
42cd
2562
0a49
60ed
7162
19ae
8502
204e
6338
211d
25a5
3176
3a76
faf5
a5e3
28cb
227c
7d26
f563
aae0
319d
80d2
7b45
3361
7614
1d3a
765d
37d4
7126
36ce
d0f2
9799
615a
5dac
f661
2d59
3121
a4b2
19a5
4526
1dd4
4707
b2d5
52e5
41a1
2722
3a60
0f37
3512
04f2
0951
6167
3581
37b1
6116
6947
8eac
91ef
70c9
609e
60a6
4665
414d
3498
3df1
51b5
b2df
6e2e
8e15
0db1
4565
6e82
6ed2
aafc
151e
4aed
8dde
676e
7a1a
74b2
d202
1f47
730d
f032
5d69
d572
5a96
4f76
79a1
eaa6
999e
0d99
461e
531a
34a2
254a
76c1
6a12
e4ba
9cad
8b16
3ddc
6ee5
04d2
2b32
30d1
b25b
8496
4230
584e
1d77
2f2a
7a42
2123
74fd
fe36
3a56
eb16
7c09
4029
5bf7
d256
21e1
4d8d
66d6
7872
5d51
7dc1
6dd0
1df9
425d
0d85
5fb2
7dbe
b566
6b3a
5ee2
5336
7d31
07b1
78b8
1692
762a
2b12
6736
932d
170d
5969
38ed
18f9
62c4
4326
6042
a9da
f0b3
6b12
08a1
2b4d
3555
360d
dcb6
708a
1d89
816e
4981
0e39
49e5
1951
614d
55d9
34bf
4558
1292
4267
3149
78e8
3ffd
6552
79f5
83c6
42ae
22b6
4fce
64ef
1261
f0c4
548e
1d69
550d
6242
39b6
f045
a282
5535
35b6
7bfe
fbff
49fa
6131
4ecd
4531
1689
3992
95f2
206e
64fb
42c5
994e
1342
5551
554d
2aa6
f019
0f9f
39d4
3073
c102
ff0e
e716
a342
9c0a
21b8
75f2
2d71
20c9
535e
4a5e
7b35
5d30
7d8d
2b3d
3159
7ff2
3f9d
376d
aa2c
5666
1a85
868e
6e1b
17fe
6349
4d95
428e
69da
47b8
75d4
a80d
5bca
1b4a
153e
4d7e
07d1
2172
8045
21a7
30ee
8047
40d4
1918
4533
2539
400d
6ed6
0b9e
6735
6d24
2a2d
5151
156d
7d88
87ba
200e
0b3d
20dd
5e5d
2d36
14a8
6216
75b6
658d
d97e
e8ca
5893
36da
5f21
521e
3f4a
f882
e8a1
467e
26a2
8d8e
3366
5b60
21a9
5335
2da6
148e
dcbd
20bc
4f7a
49ca
39e0
1da9
1f75
237a
7529
667d
795d
2736
6453
5d6a
2d82
769a
4161
f082
4ec6
2afa
3761
1b45
36a6
3e12
7998
44c2
6655
3d16
2de5
89e8
aeb2
f9cb
df4e
1aa2
75fa
1496
1dd2
d012
7df5
e91d
493e
093a
551a
e966
2671
747a
4296
3489
0db9
7922
36d4
22ba
397e
260e
a05e
4eb1
1d42
7d95
4879
3a29
30f5
203e
1eb1
5a66
da7e
64cf
352d
fdca
48b5
792e
5bdf
3b39
bb3a
88ec
5a9e
3d81
311d
2ee6
3f7a
a45e
5519
4d6c
2a22
6087
7d4a
b552
5f3d
69a5
4a71
2385
1d51
158d
66f9
3c5d
131a
3d13
2ea6
3a59
1926
3f0f
47e6
86ba
5f52
3c79
12cd
5d7c
f6d3
1bc6
199e
819a
b15b
e44a
a5ca
7582
dceb
6931
410d
b7ad
b09e
5e36
de35
1ecc
0998
e16d
4003
49bf
2ec2
6dfc
f619
0d65
f5d3
74f1
0917
5898
4d59
37ae
430d
4182
59ce
df29
4d69
3330
26da
4dee
13bc
39d7
5370
65b6
0b12
b74b
04ee
50af
5399
f088
1a62
659b
5a49
098f
4703
c243
3af6
f612
418d
76e8
2d89
3916
47f5
b00e
6677
35aa
202d
1ab5
e956
6c6e
761e
2ee9
3da3
4f0f
772d
48ec
d825
2204
6299
555a
16c8
09e8
0d6b
0d76
1922
3b51
727e
4386
51a7
7a82
1f2e
a09e
b2e7
a621
4710
cf52
8ea9
4d35
65be
5ed3
8d4f
e6e3
348d
465e
351d
4309
e97a
4921
0f1e
5a3e
2dfe
b512
7ce9
69f5
7d25
7170
dcf9
6a6f
7cb1
48d4
7e60
b03f
0d14
587a
3fcd
805a
3833
7731
40c5
6249
78e6
7d21
db91
6af6
3723
5eb8
41c1
31f6
796a
1374
407b
60ba
a576
51c7
163a
6370
f0e9
1afd
fd16
7c26
e903
5236
3a1f
2272
76cd
56aa
225a
3dde
755d
4b16
60da
3593
7e4d
1f1e
64e7
7536
0dcc
dcfa
4e78
1e4f
d0e6
8882
71be
762e
4e14
7bbe
25e6
b322
dcdb
0ed5
3112
7186
49c6
f3b6
db3e
565e
2e96
19dd
cd14
6ce8
ee51
7aaa
86f6
94ad
7389
3a11
6a66
9d56
1a96
fa4e
8af6
6319
3d47
2df3
3aaa
e996
1339
605a
3a2e
1e2e
375e
6746
21dd
3d97
9893
ce81
30a2
6235
0306
7aed
e0fd
5142
3472
1afa
2533
e59e
f541
dd47
4126
2da0
55b2
60c5
22e6
1d71
386e
7f3a
4efa
fa1e
5dcf
5f62
221a
3b0e
1e33
5b5f
6b56
5575
37e2
6fe4
3979
6460
f02a
9881
314f
ff63
3b9d
3fda
093d
21f5
7211
ba5e
3061
3599
37a6
2256
0da9
f306
7242
45d2
35a2
3b61
30a9
4092
e2c2
416b
e3d4
369a
342d
1395
9cc5
37b8
42dd
65fd
22f2
4d44
ed32
653d
1dc4
5ab2
7931
6335
0d9a
8ea7
1726
133f
3ee3
2e6d
5d03
7199
3ebd
6c76
479e
932e
34e8
206a
dc91
4bbe
432a
1524
fc26
38ba
39b9
382a
fb2e
592e
80fe
4656
7b38
7152
17b6
ba79
5d14
2092
451e
baa2
0d5f
0d79
1561
5d31
073e
1b7d
2b21
46a2
1ef9
2b35
634f
65b9
2f26
aaf4
3443
7967
89e9
51a6
492e
9586
ff3e
bd92
312a
3dcd
5ad2
33f9
79bc
fdc1
27ee
40b1
2a1d
3704
1b2e
071a
70d6
ee7a
4d19
f57d
30b8
532e
1d95
2e3e
1722
5aa6
3d51
4e18
6c3d
5ca6
82c8
f54e
e46d
420d
3651
3d6b
b9b8
4589
71b5
4149
7326
61b1
6b5a
884f
35b5
dcab
605e
2e8e
5935
47da
39b5
16b8
6b49
3743
0dfe
687a
449a
6346
153a
3abd
41a2
3961
b294
476d
3e1d
6124
6e16
69fd
35bd
3985
c543
2f41
0e21
5d15
4de4
59ef
7825
4671
26fa
3151
15b6
e8a8
69f2
3f36
ef3f
1dfe
64f3
42b8
742a
5245
3975
31fa
2ba2
4b7a
576e
3f22
453d
5f06
31fd
319e
fcf1
491b
fd42
24ca
15d6
1758
6066
1e73
3f49
5ce8
4555
6428
1b2a
603a
5ede
e122
44fd
8f2a
4021
547c
956b
72fe
3682
bc6a
0d3e
7a61
7ddd
2da9
3531
45d1
405b
5810
5db1
361a
eff3
19d4
25a2
2d97
84c3
6248
6dec
e353
5941
8996
753a
7ab6
6869
61cd
46f6
6549
fe3d
507b
5571
46b8
6996
e23e
8289
f0a1
48e6
0921
2d8a
f63e
0cc6
15fa
b195
6612
5582
6e6d
7942
df42
1738
3aeb
8ddb
55a5
7543
22de
ff49
2d29
4f3d
3f09
70b8
21f9
3d9f
fdbd
1b0d
7d8a
717d
8421
7dae
3474
0b22
47a6
7f08
7da7
6f8c
3a91
6a65
4f2d
6732
760e
3385
20fd
4e60
f0e7
0aa5
51e5
44a2
bd7d
0be2
56f9
5dfb
65c9
2e22
0f16
2a66
3eb8
6e5a
42ea
1717
4639
c152
467d
79b8
61c5
4a62
5c5a
71b6
71d2
0da1
4ea5
40eb
4e23
49b3
2deb
5fea
69ac
130e
2f22
75ae
60b9
7149
6e6a
3939
e8c2
4dd1
764c
5195
7d41
5120
6595
2087
3652
3631
442e
79ac
757b
491e
374c
3d57
8ba1
3065
452a
1636
72be
41c5
20e6
3b3e
1589
81c5
2d5e
6826
5b34
8b4c
3ede
660b
6639
ff35
0856
3be9
75cf
dcf5
70d9
9316
359a
0fcd
15a1
3616
4cd4
f666
3b5d
75ca
80d3
694d
372b
ef2e
909e
f976
28cd
1416
6a75
3ef0
f97e
070e
bde8
17ba
424b
212d
849a
f5d2
09dd
391a
3c7d
7d55
5d43
37fb
f63d
55cd
7965
87fa
1931
4125
28ca
3b96
2285
e8dd
7615
1a3e
6312
4bfd
665d
7c11
6756
54b2
33f2
268e
d965
6519
75f5
4952
8826
ba8e
8992
f089
bbd2
1d29
3a46
6b16
647f
55c5
aa9c
41da
e06d
62bf
fc5a
1d6b
2be6
436a
f06b
36d6
6029
7b9a
5c5c
2e0d
6731
c538
1ee2
2c55
2337
51d2
532a
2d39
38c5
7dd1
0795
7255
8b13
3546
3f21
a03d
122d
2309
571d
e0c6
7756
8f46
5ba4
0d93
2e59
3db1
59ae
1774
f31d
352f
592a
717e
d964
768e
5f4e
334c
493a
4d85
7dc5
aa30
3a36
fe8a
fc42
adb1
c93e
37f5
086d
3493
7947
7dfe
0986
5114
2eed
5eda
3575
1e8a
4a99
ff3a
61ea
3cbd
55aa
7193
4009
8886
2315
371f
2ff6
5173
7f14
5961
354a
3495
522e
1a4a
5141
138a
671d
0de5
35e8
ca4e
30e2
2b53
3162
e0f5
4274
1ae7
2c4e
5d9b
8d61
3ff5
51c9
7556
2a21
fc2b
2743
1d9b
4792
902e
5e9a
37e8
622b
1d9d
3362
3eed
7951
3172
714e
65b1
15c1
d2d4
f02e
1a58
5b68
4f3b
4d68
404e
0819
5339
15fd
ffee
2072
4915
1367
629a
8e96
5cf6
0b2d
2581
3d87
28f6
4f1a
7ea1
0de3
fcb6
8bbe
66ce
3941
201e
62b5
7c70
716e
0de6
f815
168e
0a96
316e
f0cb
4a8e
6c42
15cc
7342
562e
0f39
6b26
3011
402a
6eca
dccd
70fd
34f0
457e
fce8
4e5c
0dbd
8de2
2526
fd3e
f5f2
39e6
5d97
55f5
4919
2592
2ac9
2e0e
169e
6045
2b3a
475d
77a5
b1b6
3a75
781a
3ce6
520d
8106
1514
9687
583e
6722
1539
655a
7526
1242
206d
75e8
7f46
3ae0
b732
3cc9
5e4a
1317
372c
55b1
1595
5faa
eb85
0f4a
6c2d
4ede
fc06
b04a
3929
f0a2
19b2
3acd
dce5
3d21
f60e
a00f
1748
b952
7727
35b8
1546
3a32
4112
7d2d
48e9
51d4
914a
3041
fd65
2fbe
4185
fcda
5351
3dd9
5a1a
7796
98e5
2395
3661
494a
797e
3846
20de
57da
51e0
391f
38ea
7a06
fd7d
62f5
6be9
4e5b
4e86
1b0f
2dbe
6d0c
c7ae
6ef9
16f0
5e7a
441a
289e
42c4
8b82
2a4d
4726
27ef
1850
7f4d
7732
2b31
b2d8
d251
4da1
1b3e
0d1b
fd3a
5de1
670e
c03a
7f75
2c82
71ee
7659
1ee4
b3cd
3a15
907e
66d3
0d15
7f7a
8b5e
8e2a
0e3e
fca5
6e97
423e
45ee
e45e
2c72
f92a
f059
4b7e
42c1
3035
e022
9ece
7575
38ca
0d61
fd6a
964e
4996
99ca
a1b6
7132
1fb6
b851
62a2
8b2f
4456
08a5
2dc5
41b2
1745
4ab8
da55
1965
6060
deae
ff6d
f0b6
d759
5af2
f9fa
20b9
2192
4961
3119
66fa
352a
31bb
6542
2271
8d6d
6139
3d1b
7dc7
552a
8f0d
0a47
3b9e
5821
8956
647c
6ed4
62f1
765a
085e
7875
0ca6
49c5
21e2
f07f
f635
cdd3
20a5
c72e
3b6e
65e1
e566
076e
5aae
5c1d
09cd
4936
4d77
6652
78a2
4a7f
aac4
a12e
2d37
7646
60f5
3f7c
1d3c
265a
3dbf
4865
f028
fd76
62bd
2371
45d6
c422
49a1
8351
8b3f
a6d3
637d
5667
3f1f
3a2d
7ef1
23ba
3dd7
9bde
8262
ec50
499f
610e
7d6a
fb22
2739
3191
ef9d
289a
61d5
5e55
37de
fcc9
6b8e
3caa
7c31
5d49
f092
4ec5
74f6
55b5
a96a
1986
4974
39f6
bf3d
170e
f9a4
5bfc
48df
51a1
412a
70fe
0d55
7b96
6760
4411
2575
3c22
55e2
25bb
5f08
70f5
884a
f1e7
ff2a
76df
5b5b
2d55
1df6
547d
0809
2e81
08aa
1dd5
97fa
2ea1
5d0e
18ce
2e56
6a2d
3bda
5465
f5fd
3f4d
487d
555e
51b1
7d09
0bd5
4351
134d
1db3
3497
33f5
0ba6
1e71
f26e
3f3e
1961
0db5
2476
fcfd
079a
5ed9
c146
34ce
7082
7649
e00e
629e
7dd5
364d
46c9
8bd4
7b9e
e77e
0b7e
095a
53fc
2329
4dcb
1ffe
70e8
2179
4556
76da
31b8
30ef
6ee2
5aba
3ddf
41b1
42aa
2542
72d3
1a8d
1665
5221
48de
775a
30b2
5ed1
35e1
7bae
6086
c5ce
7dcd
dc93
6257
652e
9caa
368e
4b1d
d896
8849
4b2d
6264
8b36
3ae6
2a6e
79d1
3a9c
6095
46b9
5b89
4cca
3f96
863a
3fe8
4d2b
511f
1add
3b1a
784d
59c5
4ee9
5d5b
6b0d
769d
42c9
2eb2
2d41
7f1a
2e5d
1936
4332
2a55
6b51
2dc4
67ae
3779
2b45
349a
41e5
557e
782a
3a49
d02d
0d36
08d5
3499
5c60
6091
e0d0
0d69
fc66
356a
422a
1971
ff07
1238
3e16
236d
440d
7e74
2f25
79b9
3491
4472
6ad3
4512
343e
cbbe
3045
1af2
1b77
2d13
771d
8d46
3921
4222
841a
4cf6
754d
074a
4a92
1e7b
47de
7c71
3da9
643b
ce3c
4e4f
1a3a
6a2f
e1ed
5cb1
548a
5e2e
41ca
5d48
e729
61fc
8d4a
fde7
4e81
4eb7
694b
9376
1b26
39e9
3a5b
65ea
fc25
ad9e
7f1d
ea96
428a
2af2
3714
4fe2
3f1e
5912
61da
3713
1aa0
5d44
5436
3b70
e95a
8f5e
7d8e
f027
7912
28a6
5074
4af5
a3f9
720d
4cf0
2623
6753
6026
4666
4ec1
3ec2
301a
1aae
132d
4015
ce59
8bbd
fef2
4f39
e916
3c1a
60aa
9986
3c52
0c96
dc88
1286
164a
6488
7ddb
349f
5af6
1321
8f2e
40b6
3782
8e14
164e
3e46
618d
23a5
1585
a8ad
16dd
72fa
69b8
2ea5
26a1
497c
087a
4dcf
3822
4da7
0944
fb32
f1d2
f0a9
0d89
2772
35d1
41d4
561e
6935
48fe
0d3f
c992
971d
642c
6577
b07e
091f
6344
0b2a
1a3d
8bf2
6606
3b16
771e
7dd6
931e
2b0f
1331
3515
41d5
7ad6
1542
7612
605b
4cba
f4bc
44f5
7292
3795
3daa
40ed
28ff
7c99
eccb
b1c6
7d12
483e
8723
4139
6ae2
e6f3
5779
8fe6
481a
1c4d
4769
1e4d
593e
183a
fdb8
5acd
628d
76cf
1ee9
8272
3ec6
4cd2
1a6d
30dd
5b8f
f5fb
390d
4b4b
62c2
bdea
4da8
8522
1606
2f46
e3ff
4cce
718b
387d
48b4
094e
91d9
6355
726b
7b47
8e75
31c8
2a29
65ee
fce1
31d5
36b8
0f5c
1f49
7c3b
2356
c537
1e3f
6598
0ece
c5a7
0d64
f099
2c0d
37f3
5559
33ed
2db1
7334
1dcf
555d
17c6
7915
70cd
7d49
28b1
71aa
38a5
4766
d131
4a61
62b1
64b0
3a51
8812
4025
3a2a
c912
ed9a
5de5
53b8
1d87
7d77
2891
074d
6aea
4347
5d04
749a
53c9
169c
3b19
592d
35c6
47a2
5e84
3de5
4422
709a
0dd1
407a
7a91
5ada
2a8e
8f41
674a
649b
4412
1ddd
3179
1efa
2a7b
3b36
4965
207f
1c75
7677
2629
5ab6
2a5a
19cc
4e0b
572d
7e2e
2c7e
34c2
7120
48fd
adae
7a87
dcd1
5651
3459
1d34
694a
4939
3957
591d
ab82
47ff
35c5
dca1
f0ef
904e
4b1f
2b8e
04e6
4fd4
3792
89a6
2e86
5e22
4dd7
3969
a52a
a1c8
6e7a
17fb
7e5a
7bc6
213d
f0bd
4c43
66de
5eca
fc75
50f8
257a
2da1
0dc8
3f14
888e
5749
8bf9
0d32
346f
bdd4
7d14
754e
ad12
5222
3062
2727
8eab
15bb
123d
446e
0d66
36e9
2266
095d
7712
7755
2716
15f9
5ff9
2075
6a22
5a37
fe69
6151
e90e
1611
7eee
2dd2
6751
15e1
49a4
7bcd
6531
59ba
393a
b69d
cbfd
d5f6
1e9d
e6f0
3625
ee75
64bb
4b2a
2022
43f9
2dbf
8282
aec2
a59e
7832
1e36
2fee
4199
f05e
3e66
073a
127a
2a82
971e
ed1d
35ed
203f
9f2d
485a
71ed
1d31
90b2
3afb
7cd2
2062
1ffd
1532
243d
bcd3
883a
0d81
7629
e978
656f
7aca
76c9
372f
4321
16c6
4abd
ff1e
214d
0f8a
d956
07fe
1d2b
7175
72b8
414a
5fc6
1c8e
3896
15b3
5721
1741
2034
8dce
45a5
d92e
e74d
19da
37a5
3e29
47fc
f0af
e891
6099
2ad6
45ab
55c1
40e1
5769
65c6
46b6
7c13
ade2
443a
15b1
12ba
4b82
348f
d2ce
44ee
fdc2
1ea1
80cf
0b66
1e66
2ec6
6c7a
7c69
207d
47fd
1245
558e
7551
f73a
0eaa
1fba
6119
167e
3b5e
3956
a8f5
28c5
4085
90bf
2ed2
3b26
5ebd
22b9
ea81
76e6
7092
ce93
e5ea
7f4a
e2f6
301d
3a25
fe55
5396
4e3c
4f6d
050c
3173
37ef
79c9
3ab1
cb46
1626
5eb2
61c1
392d
1a0d
4761
3342
f081
6fec
2f55
3448
52f2
6085
669a
49de
b15a
6ee1
128a
5163
af0d
b24d
70a7
4d74
073d
0afa
1ec7
6a59
fc7e
35e2
6145
5329
3d95
5993
58c2
4a86
2b2d
e57a
4d6f
3f6a
709d
1dd0
69b9
53a2
56fd
f61e
2a5e
239a
6009
732e
3cc6
1dfa
1dce
fdf9
12bc
d809
37c2
09aa
dce3
56ce
7e4e
2d12
6192
7135
7470
5598
27a6
7761
21da
0c26
37c6
0c12
3c2e
fcfa
66b6
3b29
f5e6
2119
7e36
171a
627e
7b51
59c2
0da2
31f5
6e96
0725
ff31
6329
8d5a
376a
20b2
7e3a
7a8e
1932
6152
7d4e
53bd
2f0d
53fd
2b49
5a6d
256a
60e6
4e87
7bea
532b
070d
207a
2bce
21ba
25eb
44d4
dcb0
4a7c
b742
5561
124d
f053
5786
19ca
2ec5
1f35
7953
64a7
5581
9752
34e7
3125
2321
1382
16aa
5d23
4c6e
7b63
1bfd
fd5d
14e9
fdc9
55bd
5978
470f
40fe
5e26
22eb
3c81
5926
0b56
0f3c
d266
8f42
5356
a553
a3bd
7651
5c76
5c79
81f2
34d0
1555
130c
476a
5171
208a
73b2
3569
73fe
6659
4519
1ecd
3093
3b72
1b06
5398
219d
3f91
25fe
68b2
39c8
528e
47be
47f9
27fe
2125
4292
49be
171e
665e
f049
3334
70fb
31b5
17f5
f0b1
0fd2
4f52
9747
7da5
26b6
4969
f0e0
4c5e
2ded
7822
1a7a
59d2
67f1
8019
fcd5
53d2
4476
5b7c
5c0e
988e
135e
6424
85b8
65aa
6fd8
6d0f
b17a
1f16
3cc2
157f
2195
7691
1749
1237
19b5
4993
773e
a976
31e8
3587
5f6d
7139
0d31
12d2
22fb
5131
0ad4
62ee
2f7b
793a
f5e9
fc7b
6779
187d
2eb1
5b77
3996
ed62
2fa1
25d4
7f0f
9e8a
8f4d
34ea
7b2e
3d23
6ff0
7f45
459e
567a
228e
ad66
3cb6
60d9
6b37
49dd
3d53
4db0
3171
3d3f
79d4
30b1
13fd
7a7a
f0f1
d94e
3852
42f2
8945
1d85
270d
470c
1421
2b61
22fa
22a6
88c6
6003
204d
59e5
42e5
3a4f
411a
6081
6bee
81e6
152f
2faa
7e3d
64a3
6255
2e92
6636
863b
6156
72ca
6656
fd1d
5a44
5df3
7d93
fdbe
41ed
c072
b34e
5dbf
59a2
27a1
9199
3a22
2d6b
0df7
bd97
7eb6
8202
2079
52b6
5bb7
775d
6729
ad1f
42bf
471e
2421
7537
9266
3692
2eb8
145a
4b09
748d
b595
4b22
9576
659d
43c6
3c3a
4215
8b53
37ca
3416
3046
6eec
262d
f9ce
7849
7c08
3776
20f6
78d6
c544
5bc8
274d
4759
5ba8
2bee
6a0e
20ea
ff9e
093e
3449
3571
5d3f
4219
8f71
18e8
3aa5
fe92
4727
f542
6e5e
dcf0
1ed5
a3ad
1927
91ae
61cb
0d34
6675
b28d
1f46
488e
63e2
15c5
ad14
28b8
2b29
b62e
2335
533e
4dec
477d
47d4
524a
70ca
eae0
ecca
7806
1dfd
e5b2
20a6
79ed
28f1
2bf6
586e
0b0e
31ed
20e5
2c76
3c21
1a25
712d
3856
57f1
64b4
a9e6
099d
0fc9
750d
3af9
48ef
59b9
144a
6ab8
7c5f
0fea
5599
6e77
52b1
93fe
57b2
a9d4
4211
7829
38a6
1206
1e63
3ded
6725
e1a6
b0d2
0dac
633e
2e46
2742
3427
669d
1e45
8f5c
782d
6e0d
15e8
5fa2
5ea6
334a
211a
4d70
15cd
9450
4d64
25cd
2fe2
3521
f2b0
227d
0889
fcdd
3325
963d
437d
78b2
44b1
3d37
335a
072d
7e7e
8553
1ace
43fd
baae
7945
39d6
4d63
eece
518d
3c3d
40a1
3612
bf6e
3d56
25fd
3c29
34ed
42e3
30c1
0e1d
26de
43a2
8166
6b0f
4f5e
fc4a
6351
63ea
61cf
462d
fc1a
d502
4314
49bc
21cd
1733
364e
452d
5ce1
4ca6
fefa
0dd9
7de5
20c1
3a33
6c20
1dfb
8fba
34cf
7533
6363
66ee
17eb
6253
3989
37b6
42de
682a
e91a
78de
5315
3dd5
8491
2a52
2d5b
7416
4bb6
2653
8f98
fde5
0867
8b9a
4856
16af
e99a
7dc2
9cf6
0eda
6191
3a98
3dcf
1f2f
7715
4f49
34fe
fa12
0876
5b6c
43fe
1cc6
3463
40bd
17d3
12ce
7b19
31da
35ec
7166
fdae
7362
5b67
1545
4c35
778d
1df1
1e0e
570d
8b0f
1810
5b9b
ea2e
3d14
7ac6
4e1b
771b
4195
907a
5747
ab72
1aaa
261a
6b19
35f9
fcc8
1ee1
2a1a
2da3
39ea
db4e
3667
47c2
2339
7e75
644c
24fe
45e1
5d8b
f0e2
0a7a
4f42
e67d
5925
782e
6053
3037
30e9
75bb
8f51
5d57
954e
4821
70ed
7e8a
7c4f
7955
5c6c
786b
169d
90fe
4dbf
6281
305d
eb42
6149
52aa
fde1
1b0e
1b55
7c15
681a
20ba
422e
c429
3332
4322
2571
190e
2582
4bfe
462a
6646
3eba
63bd
1e5b
53f6
7d51
1d68
70e0
7960
a0aa
f0b5
2522
65a6
1e81
a57b
0a59
62c9
56d4
ed52
344f
2de6
61ce
6764
126b
2027
900e
18d6
3f51
5dd7
3e36
6eda
22c6
53ce
27f6
175d
c13a
5956
a182
7723
1693
1ece
5e56
5155
3df3
33fa
736f
734a
608d
f1ba
5d63
9b1a
5e89
1de3
80bf
f0c7
30c5
b221
2db7
4f65
601b
363d
1eed
0fe2
37a2
677e
9552
f1f7
04da
7dd0
156e
2515
16d9
2885
5641
225d
45da
0e0d
4b5a
62cb
7beb
772e
1df3
5e3b
2b79
8b70
5169
7b44
a136
39e5
67b2
7185
1721
0b06
3fc2
25e8
07d5
62b3
6b69
7c14
fcd1
99d2
1332
1571
28b5
4f35
54ba
08c1
8bce
59f2
b156
5dcc
7db9
0dab
550e
79e5
3d5e
957d
6404
6052
7b39
82f2
a676
0b4a
6057
2cba
458e
688e
34e5
133d
245d
0d2e
15f1
f074
56b2
2c2e
456f
7d9d
60d6
0d19
4517
4c61
df2e
7b3f
157d
47bc
fc2e
265d
6417
40e2
3071
752d
4967
ddb2
0d0d
f00c
7db1
752e
f207
f655
13fa
57f2
94be
59d4
1714
3345
5ed2
4ff9
8b08
3675
188a
52a2
3dc5
7df9
48e4
4ded
2d25
40d2
2565
27a2
f5de
5836
174d
f022
4a6f
5aa2
2fca
4949
64ac
fcfe
f956
25aa
5e82
2196
1592
0ddd
0909
ff12
1942
1315
34b5
346b
7cba
e53a
52c5
5bbb
1323
4fbb
d171
4169
8d4b
7c0c
1725
5979
09ba
342c
31bd
7e7d
2598
7299
2776
23ce
196d
15a8
2f49
0811
f1ed
203d
8bfd
3bce
3f60
f959
7450
5576
6027
22a2
5496
76c7
43ae
62aa
3141
48c2
4596
958e
8052
7e72
478e
4c62
b52a
6e64
7641
1efd
66c5
9f52
d1d3
15ca
75da
3409
4c22
4b29
3e5a
fd6d
ad4e
5bf3
1dd3
1c4a
70a1
622a
aeba
1b4e
1aca
31fe
4bca
2d88
ad8e
1b9a
9c5d
0d92
d1d9
0b19
4282
b2ba
89f6
30cd
eeea
513a
e911
39ed
72d4
5b58
b071
3e82
1569
21e5
1591
3d2b
3347
8f29
8711
cd4a
34e1
5625
51d7
85d3
ea1c
2df6
62dd
7fbe
a9ae
7fdd
4f06
301e
ee97
09c2
88dd
20cd
2d7b
36f5
1e65
48da
5527
f031
737a
625b
946b
c652
0911
5355
3122
1576
3551
f96d
731e
3919
3c56
eb8e
6bb2
d98e
243e
3672
fe06
26c6
6b35
bb70
5c75
07c6
2316
40c1
8f6e
69d6
399a
ed1a
3349
5896
54c6
6067
55c9
55cc
953a
3396
2b3e
61db
0f97
8e33
7545
4014
4963
a6ba
e9da
2711
79b3
6321
8495
f9f5
3d8f
4137
f986
3f15
597a
64fc
5482
fc63
22bd
4951
21bd
428d
1a42
f7be
7ace
9b5a
1e56
0f12
a67d
7c1b
13a0
1e41
7496
759e
f322
8821
7dca
4734
4e13
5121
0fb2
3a6a
4dd3
4986
5489
69a9
4d1f
6333
0779
4e91
3d4b
745a
2556
4779
68c1
1229
0865
7f18
7bfb
a655
fb41
34a7
57f9
729d
4b76
3cd4
55fa
39b1
2779
1e7c
3e5f
ef29
382d
c71e
359f
3404
f098
b2e4
8f36
67fd
1593
4d27
0d70
2529
1ac2
7ce8
768d
3a8d
8b3e
2699
49ec
690e
7ae6
794a
159a
1538
8e7d
4f41
6420
0966
804e
0abe
5e4d
1d4a
fdd3
5b24
21a1
3c03
522d
26d6
815e
6861
fc2f
7b71
4151
21e9
21d5
059c
f051
62be
2efe
79d9
2706
1d73
2d34
6a25
71e5
44c1
75c9
3785
202e
4270
f315
4430
4fe6
36f6
2055
66b8
3e86
e147
1537
240d
69ed
6715
ed22
c27a
fb1e
3914
64e0
4475
798e
f0f0
d1eb
5167
46bd
30fe
9972
6410
39d1
e1c7
3082
2f45
6534
3eaa
5d34
3f55
2d19
3937
88e6
3fb8
31cb
090d
1d7b
3513
3df4
d52e
3b42
15e9
3d24
6232
664d
235d
4d60
4f62
40ca
60cd
4186
5133
1329
a6e2
159f
4207
e286
194c
2496
2a0d
4238
5f11
0d5b
dcc1
1277
6c56
e832
3dc3
816a
1911
1c76
b3ff
3aed
6c1e
2026
0932
544e
3e08
64a0
a5d3
6c6f
b5ab
7b20
7bb9
71f9
5be3
0f32
3c12
1e61
3d1f
2d1e
09c6
b1d9
19be
5f22
7626
aed6
77fd
2462
1d7c
a093
e381
2eca
baea
785f
68f2
14ee
3862
41b9
998f
1b1e
234b
3d33
c42a
376b
630c
3a95
1ae2
4941
76b5
885d
85d6
f52a
76aa
1e59
3339
2b2e
3642
41fa
43d2
80e8
251e
4131
0956
15be
4799
5fb6
171f
dca9
18ef
60c1
4c6d
b021
5529
16e8
3075
61d9
3d9b
901e
2e7d
3b11
4156
53ff
9366
6567
25be
3d73
4cc6
2242
4842
4d1b
300e
2f2d
79f2
d33a
0fbd
152c
477e
46e9
1521
ed8a
41d1
5d7b
6141
0d52
5dc8
53fe
2d6c
450d
20f7
f64d
09c9
5539
e496
25f2
71e2
6766
22ea
4935
3b84
42a2
5416
f0aa
07fd
8db6
7f03
530b
18c3
6226
60d5
2e8a
3566
a0f6
6245
466d
1f7a
4d7f
316b
21d4
6555
667a
7ad4
65f0
607e
1ec1
34c9
46cd
4959
c976
3aef
75b5
61c8
7d3e
3eea
1bda
447f
6458
453e
c2e8
5751
435e
6376
c3f6
9e0e
d021
16b1
ddd4
45db
8093
5ab1
1b49
6430
1567
6f84
1ad6
2a3d
7b2c
74e6
7627
66d4
e67b
63d6
ad7d
5dc7
4dab
1e67
6a39
4155
dcdd
8bb8
204f
65cd
770c
78ae
8926
b0f2
8dd2
52a6
76a2
1ae9
21d9
540e
bb0d
b850
eb95
2351
55ca
6121
97f6
5589
f0bf
6093
8e9e
2fc9
28fa
5216
498a
9b36
58f9
6063
3cea
1d76
7262
1ec3
453f
7555
f08a
4d4f
1584
37bb
556b
14ce
5b8e
5daf
52ba
3ed7
7c59
3ece
7d69
fc59
4069
1d2c
5b9f
661d
5d33
fc61
5d26
fc28
725a
0d71
6a0d
6e72
7513
28dd
30ca
095e
47d1
6e31
5bd7
2672
6b36
5ee6
a68e
19d2
b72d
4dc3
66e0
b016
dda2
1685
c076
3a7b
5d4b
1361
12d4
4174
91c6
23f2
030c
3031
5a32
ea55
c12e
7ea2
161a
4abe
42b2
45e0
5cba
89e5
4975
8dd6
47ba
2009
c10d
fb6a
5f29
6306
5246
5279
5d1f
6506
f9fd
79c6
79ba
ece6
52d4
7518
4a7e
3030
ce21
644f
f512
3d3b
45f7
0731
7f3d
3f7d
49ab
2eba
d0fa
70a6
4362
679c
218b
7155
4bae
bf26
c212
5ade
d21d
51a5
8f66
3912
536e
7d13
7d33
3d8d
55d5
7559
4a57
4c8a
4ec9
2bfd
74c6
f9b8
343b
17fa
36ca
42f1
195d
9745
2dc7
08ee
4f5d
43dd
5832
fc65
bb51
2341
5ddf
5be7
22ce
275e
2ae9
a498
613c
5c7d
61ae
0d8f
3351
1695
4b72
8bd6
3e69
3133
429d
76d9
997e
e1ee
8f0b
7663
4c9e
5626
0e4a
6afe
9d9a
3043
787a
204a
1772
30ff
3059
0e7e
7741
0c8a
2579
2f09
2d2e
79ee
5746
f61d
6651
4892
1d6f
7574
40b8
57fa
5cee
41fd
59ee
4312
3872
ed4e
0b5d
147d
6862
5241
7841
600f
f166
3181
2432
55bc
121e
764b
7937
6cc1
257d
5452
1543
253a
38e1
44cd
669e
46ce
5963
4ac9
9e84
3fd2
1dbb
74b1
3ab9
5e98
fad6
bd4e
a02d
725e
2a61
3bf5
2199
412e
3daf
3771
5548
36ff
5249
7196
71ac
55b9
155b
25ba
71b8
8da2
1731
2c49
4789
4f26
7c23
36fa
6aa5
41f9
6c98
55ab
a9be
5e7d
27b2
2591
56f2
5e41
3c62
31d1
692a
de21
3e2d
5314
f1ec
648c
14f5
fa81
76f9
2ef7
ae21
3bfb
434f
6347
66a1
df33
25ab
4091
2622
616f
7456
7539
5242
7e7a
2f47
7198
80ed
4b33
6abd
e919
1ce6
276d
4652
7b33
2229
b59e
61a1
85e6
5e3d
2b95
7ab8
222d
3f3a
5959
470b
8d7d
8f62
cd7e
3042
889f
63c1
4ed1
5f38
59d0
7c04
1df4
41cd
473b
4243
f2aa
2ad4
5945
0d57
f15e
c42b
59ed
3a8b
7e2a
5d17
5326
77e8
7a55
685a
5122
3b41
e94a
7143
25e1
370f
45d5
43f5
eb4d
2dac
f94d
19c1
3909
61c9
f09f
6277
5611
eb46
271a
4d58
2012
8f2f
4127
4b0c
dc9f
079e
7660
0d4b
0df5
395e
371b
2c6a
60b2
3b1e
fc12
715d
bd8d
fcf5
2766
5137
607f
4c9a
222e
21d2
3482
3923
6df4
6584
f55e
3a89
4e2c
0975
79de
21b2
764f
5b8b
49fc
606b
2a4e
1f36
377a
4743
474f
7881
94b6
411e
c551
b045
686e
757e
61a9
34fd
6635
3ed6
61ec
41e1
74ee
4b0e
72da
61ff
401e
458a
f98e
1316
49c3
fea2
5b97
3bfe
2d14
4872
3b2e
1465
66e9
443d
5472
f6f3
1f39
fcea
258d
a54a
7abe
7272
2f96
3169
4deb
26ea
e4bb
3f2e
5d74
8c9d
7845
4298
7871
6709
0b47
1a98
3f41
5722
590e
3bf2
1676
4b19
6089
4d06
edd6
23a2
3e3d
820c
7644
5e48
88d6
f32e
4c26
7603
fcfb
4098
60c9
5a6a
7769
5855
759a
247d
76f2
26f2
0959
31a1
9872
fff0
f992
5d92
606c
669f
168d
3039
2c56
31ae
2586
552e
5113
2f51
a146
5492
720e
8b66
fa6f
2f35
f09e
f03b
3a2c
8eb7
65bf
6125
3707
09d9
5d6b
4c3a
34cb
8b14
31aa
833e
41f1
47a3
2241
cfba
55e5
a067
3d43
cccb
3d63
16e5
5703
1252
6664
5341
1ded
35b9
419d
41b7
1c6d
2306
3514
3178
5197
a162
23d4
5a72
2349
ab06
f71e
13b8
19e8
2042
eb3e
0a62
708d
2e64
711a
4339
36e5
3a63
39e2
5bc3
3e72
5139
8829
4064
4776
54b9
2e16
6ab9
66d2
795e
35d6
1962
49b5
a52e
311a
460d
e34e
4a85
3668
139e
4406
42da
4f25
9d2e
6e66
421a
77b0
212a
343f
42a6
8732
e5fa
4db3
c06e
b04d
0d21
3cb8
6298
64d8
69ba
2142
d810
49af
fe3e
6e0e
34d5
a0c4
7a1d
363a
5620
56e2
2cb2
9662
7c03
5562
074c
6a61
1b43
5645
2696
1b76
3d5b
23ea
458d
48f1
46d2
1e1a
0f5e
f64a
71cd
8d3e
8fe5
2039
0acd
3a08
530d
5686
691a
5d84
8b6a
2f15
89d8
f44e
2aca
341f
2b9d
cc99
c716
780d
5bd3
5a62
ff3d
0919
7c6f
373c
5563
70f9
5661
2e4a
1ab6
eaa2
4798
6663
21f2
5dfe
a3f6
3598
f05f
1b92
1d8f
3559
403a
2e82
a172
f9e5
9072
5256
465a
1c52
fd9a
5ba3
072e
58ca
7ba5
f5b9
cf2d
f9d2
083e
401b
4df3
5e16
2f37
19de
5be1
26ba
5e92
f8ca
d5c6
55b8
1ea9
7f52
3a31
8f47
516a
52de
7586
20fe
622e
f595
6e1a
69d9
264a
4398
573d
0e22
9145
f5fa
3015
4175
6418
62a5
5719
4977
65c5
36ae
5206
0d29
49ed
a0b6
6112
31e6
0f6d
5706
a97a
51ed
1ab2
526a
3ed9
4147
53ba
6ae6
4f9a
61be
13f0
16ee
5c72
7699
80da
367d
8852
c9b0
3017
5f46
19a2
7b4f
8aa6
230b
54ce
f91d
2cc6
5c59
80a5
7246
45de
4aaa
4f72
df3d
4831
09be
1ca5
6438
40b9
3aff
43fa
e5e2
5a5e
ffdc
a450
76e2
25f5
35fd
4041
8b65
6b75
fc79
fe75
7159
7512
7dc8
16e6
277e
f04f
559e
126d
fce5
5a0e
0f33
7ed4
bbde
bb44
2511
783a
0fb8
4d97
45c9
74b9
f0eb
7692
7e11
7846
69ee
142a
7b75
2c7a
2c86
4082
7a17
5275
e21d
8f55
756c
1841
1f89
15e5
2fba
51c5
55a6
9256
ebfa
75de
7426
c556
aed3
6286
5181
3842
2352
a8de
67e9
65c8
5f72
b166
555b
4b39
9b2b
6a5e
5ee1
3f44
6755
77d4
7f2d
5d13
7925
6274
4662
e94d
5c2e
6126
5392
37bd
576a
4311
69b0
7d97
3056
5bf8
04d9
97ff
0d35
609d
0cee
198d
eb17
c13e
77fa
0d97
7531
5344
78fe
3e79
6198
252d
65e2
3488
e7fe
3479
340e
247a
7d63
7516
5bcf
8f16
5386
3d49
5c3a
27de
f018
12e5
7bc1
2a5d
91f6
75d2
64af
47dd
5a85
415e
39e8
dcc4
1a9d
2b43
4d4b
fe46
4dfb
2be1
7d96
20e8
49fe
7956
431a
d57a
3aa9
308a
5ee5
4153
0f4d
04bf
6836
d096
7916
8eaf
512e
6195
6a3e
1f98
58be
7097
80a6
6209
7111
ad92
98f6
4b51
5cb2
1712
bc1d
75b8
ed2d
3d30
3b21
85e9
7c93
eeba
fc36
3d0d
f0c3
5bb4
8e89
3c6d
9d35
7a66
62f9
2e1d
098d
4585
5b64
69f3
fc3b
3959
a021
a22a
3933
9716
83f6
4635
21c2
1dcb
2af5
1f3e
1d24
9af6
82ae
804d
b0a1
5975
5fee
9b42
2e4d
ff2d
6986
07f6
3f76
bd29
44f2
9ba5
3eca
4530
47c9
bd8a
725d
99fa
04c2
19f9
f00b
606f
0b77
4a9d
0ad6
0ab6
51a8
2161
6626
8f33
7d6f
09f5
6915
8f35
7d4b
6ba2
5c25
f9ab
a0c6
738a
41db
eee2
13d3
24d6
2dcc
5a1d
5316
73d2
4d48
1d0d
4032
167f
46df
46b1
3ac3
f1e6
0bfa
1e9a
1b3d
5145
3997
7b61
63ab
1ad4
7c17
2c42
a55e
17fd
4a5a
4449
edd3
7d07
7985
4c8e
3a6b
4672
23a7
49c1
9566
1e74
1c5e
9dba
ff25
1eff
5656
5c4d
8d92
88b2
4bd6
12d6
2e98
6b76
7c4c
e91e
e31d
3fd6
42d6
68d3
3f16
5108
6199
6bcc
b2ea
c426
ef2a
f58a
4849
55e1
3115
42f6
216e
471b
6ff7
4ad1
723e
e742
797b
746a
3468
3398
7f5d
57ba
5f39
eda6
2aae
a746
0dc4
1acd
a571
ec9b
7733
13da
49b9
1bd6
7906
51cc
fb1a
2752
121a
4aa1
66f2
6b3d
5186
6e6f
3b31
097e
8f52
398d
a737
40c2
3917
7f26
216a
74aa
4d73
5995
6ab1
3c39
47b6
7763
2b41
b9ce
68fa
67fa
08f5
44c5
9762
55c2
67e2
7cf6
9d8f
f0dd
3bc6
fcde
fd4b
15a7
0a10
5f51
88fa
ed1e
446d
45fd
35da
c296
3bae
72d9
758a
3633
fa1a
58f6
3821
6631
5c1e
4675
1586
3ef5
3b49
3457
4a7b
69de
04ca
34b1
4051
6ebe
28e1
6a52
2a59
dd32
98f5
564d
7dc3
dcd9
d1f6
b1ea
2d2f
61f3
bece
7d98
2d2b
58c4
7b9d
22be
089e
5dd0
6484
45e9
63a6
c6e8
492f
7e3e
1da3
6739
157e
ad97
19c2
fb0e
ad5e
723d
0a03
2dd3
15d7
88e8
921a
4eea
5a4d
4fc2
3451
5123
0da5
37d5
651e
70b0
2d33
1f84
72a9
36cd
7b7d
972e
4521
a5ae
12b1
9009
cd61
e69e
6160
8ba7
4093
8d42
53b2
3485
365b
7b43
42f9
41d0
63de
4a64
f3fa
2445
9a1d
e092
0eca
d03b
4ca2
417b
76bd
2eec
264d
c5c6
61eb
66c9
fc55
7719
0d91
77aa
36c1
3aa6
e2ca
78c6
49d5
592b
eeee
887a
8196
a922
e9aa
3372
6a6b
120d
4f21
652f
6587
ed35
b129
3419
25cb
404b
891e
90c9
5eba
7c78
612a
0989
4d0d
92ea
203b
60ea
d076
b1f2
61d1
f5d4
7b70
fe66
1f56
0b0d
8ce8
398f
7db7
27ae
146e
4b31
421b
1ed2
41cb
5949
81b2
f7aa
623f
e952
7181
4ad5
3e89
23aa
7125
4116
d6c6
1c3e
b1f6
f2d4
76ca
f06e
f5b8
4d23
91ca
4d6b
2ce6
25ae
7a2e
1792
2e7a
0d25
35cd
7775
9d3d
967c
3aa2
4c09
9fbe
1481
bb7f
3724
21c3
353a
a05d
288f
0eb8
307f
265e
2bc8
4d53
1db7
42e7
1b56
5f7d
5331
39c1
8176
7a97
f070
3c72
1cdb
f091
8b37
2c32
81e8
3e5d
8784
4bde
1d70
43c1
fc31
1cfe
2521
2fb1
481d
165e
16f6
238a
a896
8ea8
7cd6
5333
1515
dcf7
2093
231f
275a
0c2d
199d
55a8
4ae5
4225
3efe
915d
b1ae
6193
2895
493f
206f
d9ee
7b41
7973
7d7f
f12d
5739
28c1
2212
b99a
bdd6
7a6d
bae2
221d
2149
fc47
916c
266d
2aa2
2da4
8b5d
0d95
1a22
ffe3
484e
8736
d549
12c1
6a3d
b26a
4957
4df0
7e58
ef76
63b0
8891
5e6d
25b5
754c
8855
e1fa
e1b5
2ef8
3f89
151f
f17d
288b
65df
6221
226a
491c
4525
5292
6b45
bbd4
4d9b
ff6a
1ab8
7b32
7571
3ff2
7303
f559
4b1a
266b
39c9
4046
14de
94f6
e12a
2d35
47d5
2bbd
3830
0745
0a0e
2d3f
55a1
811d
5a39
25ee
21f1
6289
3098
fc71
6314
a14a
e021
5e99
3c3e
5982
670b
9ae6
46a6
45ec
3fe6
6544
e9d4
0775
4b65
1719
1bff
2169
6136
44c6
2331
79b2
4489
5e32
7628
4dd5
5532
6527
8fee
2b5d
7b55
f6e3
75c1
7549
0a35
e95d
53be
21aa
80e5
60b8
2ee4
75e1
62b2
0fca
0e9a
8b8a
5f44
e9de
5931
19b1
44ba
3a73
3084
41de
f9c2
19d0
a71e
52d2
43b1
140e
1fcd
5406
71a1
c04a
358f
5f4b
482d
30a3
4229
3e96
2c8a
61de
5fe6
6bd6
41c2
1c5a
38ff
2e61
3f31
ef1d
9182
4323
85f1
0e95
7bb8
1b04
1975
7165
ffa2
1f1c
5c3e
244e
3526
459d
8f76
35b1
5bc4
3967
2561
767f
7339
436d
35a5
2666
5a43
418f
fc33
75d9
d5b2
5659
69cb
5ae1
a1ba
71ab
5665
4add
571a
0df9
3ca9
7efe
6679
60af
b209
6992
f037
9022
f286
5b8c
68e8
47c5
4da6
76a6
7b12
7c37
19ef
30e7
2c36
3b2a
6726
bde2
19fd
7a3d
c41b
e52d
04cd
6eb3
2132
34de
4c0e
31cf
6434
a562
4e58
575d
fcf0
99d3
35c1
766b
3f3d
24da
09ae
69ec
c9d4
1679
78bd
598c
6551
a126
623a
788c
5322
dd7d
62cd
7681
6092
7cda
75d6
1c21
7356
4281
a2d0
213a
3ddd
b226
64e3
25b9
7396
2145
5f8e
2dc3
7578
b9a2
803e
3477
3a7f
f626
2b39
31f2
3865
28e9
2c7d
e11a
2ffb
54e6
3355
9247
3089
1a81
1ae8
8b3b
3e7d
1cba
f0cd
5b5c
66dc
2cd2
45f6
5db7
ddee
0fc7
31b9
2b6a
7736
ed79
0a2d
1ce9
7929
6b65
7c27
56b8
0fde
2b48
af06
7877
1cb8
35a6
3f25
3dcb
5426
2f61
34dd
356b
3fa9
2b4b
6c4d
6494
8e09
56c6
e51a
09ee
91de
38be
681d
3639
ab4a
6c4e
38e2
4561
2081
0ad2
3055
775e
7765
18b8
b729
46ae
5b57
5a4a
4181
4515
2ade
fc5c
19a1
77e2
4451
6c26
954a
c281
263e
1b93
eafe
6c32
4d57
6558
85d4
7a49
527e
5a5b
eb86
2d77
649f
2136
2360
44a6
8f21
1631
6b96
45ce
2be9
0776
fc11
0dd7
4435
5111
f9e8
4f56
8009
e2d3
273c
7c55
151c
5609
078a
7e61
a6c6
a1f2
0db0
99ba
159d
2bd4
5a7a
45b9
2519
5d73
8116
f7bd
40ee
3b6d
8a1d
4f55
1ff2
43a5
f326
3806
e98d
80bd
5bb3
4b92
315b
a152
16d2
7826
65cb
a512
37ee
38fe
70a0
2b2b
6a5a
8952
9e0d
7347
4968
2555
39aa
39a7
48c7
3689
5412
6225
277a
49b1
139d
59f1
d1ce
2646
63a1
5da4
7095
4e89
271e
396c
8d86
6b72
38d9
3ab5
7ebe
5a6b
2236
fb3a
733e
6ff8
4587
077d
4b49
3748
09a1
4775
5f61
8baa
49c8
554f
e5cd
65dd
3a17
5b6b
82c2
22b2
539e
65e9
0d9f
5289
1a7e
5f15
66d1
260d
3665
62ba
7bed
1ca6
16cd
3637
5e5e
fbde
394c
24c6
51e1
51a9
5577
4862
e0b5
2fda
1519
4d37
1a06
3f29
3329
289f
b051
5136
1996
6cea
2dab
5d24
8f5d
c8c6
55db
b33a
1e07
55f3
7c28
699a
359e
0d0e
2cc9
601e
2589
3f03
7e0e
ff13
2abd
23c1
802a
1789
36f2
76fd
233b
3541
4d13
30b5
556e
35a0
5e31
8046
924f
4b4a
3079
1989
3016
5709
f0cc
7081
fc56
59cb
77ed
22fd
3965
4ab9
7d70
74d6
4593
b4ca
5d6f
359d
473f
1716
f008
b076
472f
2551
3534
5a61
48d8
5dd8
a2ca
8b5f
4704
543a
433a
358a
5595
404d
33f6
ab3e
6a51
1f4d
1cce
b7da
3453
353b
4d88
67e6
f9d4
5671
6064
9112
4592
611e
2ada
6b47
895d
162e
6743
3834
2b0b
65f5
46aa
3a66
1ee3
5622
1a76
080d
dca4
14da
1533
a545
6019
0861
5731
f2b5
53ca
63ff
b011
f2ea
406a
48b6
ad3e
3641
778e
7432
55da
601c
347c
d07d
475e
07f2
4077
80d1
9596
51e9
386a
8349
33e6
3a81
1b66
25b0
c57e
217c
6215
5bd2
7b4b
41ff
21c9
24c5
4b3b
0e46
faf2
88f5
70cf
eaf6
75bd
2da7
72e8
5263
62a9
4ec7
59bd
2547
54c1
18d4
fc52
1e3e
ab65
5b87
3b86
1347
22d4
c139
87fe
21b5
651f
8865
586d
3d7b
a9c2
448e
a34a
512b
0d77
8556
97e6
b05d
2198
2122
99b8
5265
7b5a
3bd4
5f92
1ac9
777d
1edd
35e7
3425
3012
eac6
6185
64c4
a0d3
0aed
ab16
fa8e
225e
952d
3138
dcbc
7637
7e62
780e
7ac3
924c
1ed0
6ad4
4d03
6825
a1b2
4606
1b82
59fe
385a
4d5f
a5fa
1e03
f02c
2e76
4379
1c1a
3696
5663
8bbf
1bbe
f01a
1559
6512
2dfb
79dd
77c2
d5d3
65b7
25e5
53b7
c325
4198
387e
69f1
5c7e
6748
d475
331c
2e63
2d7f
0d49
1ac1
356f
5c21
3698
30ed
7b1b
b3fe
7547
e909
0e42
8819
638a
6e22
25d7
680d
953d
5bb0
c6ee
48f5
9296
41e2
1d86
527d
75bf
8b69
22ca
23e1
559d
7226
1e53
2226
e1fe
2d67
b16a
4586
6e12
4aa2
4b25
39fa
f00f
5259
5d5c
a24d
2e1a
226b
374f
800f
95c6
5325
f991
f516
39dd
715a
361d
709e
5712
3791
6ed5
1e1f
57ae
d4fd
a64e
51cb
89d2
59e2
547e
8489
c114
18a2
7ed6
5a67
7919
cd59
5dbb
95ee
ab2a
172e
468e
dcb5
074f
8f31
1769
d74e
8f49
6879
1dc3
1e35
6a16
4f19
7711
52d6
60e2
1919
25d9
3f6d
4115
7b0c
4b6a
42e6
8875
f74e
fd59
12f7
5261
8b92
800d
60a1
25ed
37e1
0942
64a8
0ff3
a165
4795
3666
1e92
fb7a
3720
4432
3ac9
8b8e
144d
2d57
31ee
5c0d
150d
8d8a
f029
66bd
1b29
785e
712e
6585
9987
0b32
0a6f
384d
61ac
fdb5
a16a
7709
7df8
3d6c
446a
348a
4563
5ca5
7f41
52c6
f6e2
539f
2b55
358b
45c7
a60d
3fde
471f
2bc2
4192
58ce
25f6
7673
f67d
a95d
4717
679e
0922
b0d3
4409
ed85
4aa5
7351
f62e
7f55
42fb
2ece
439a
8062
c72a
3535
9b26
468a
26fe
4f15
8331
45a9
4ae1
2141
b54e
55d1
434c
59dd
7591
8fb2
1f44
fc57
4d5c
6535
62de
85aa
1c4e
7521
7afa
16db
5755
5a42
3e62
223d
8442
5c06
8595
a926
fcd9
34f9
3c61
45c1
4c7d
3e56
79d2
4711
0f0d
fd86
9656
59b1
3137
3636
66c2
4753
79e1
7a6b
f952
2753
a856
65b5
19bc
7274
588e
4db4
4997
fe32
6914
45f8
4c79
7c44
09da
9956
618b
0ddf
3053
a611
1c69
448d
6e71
3abc
663d
866a
7cbe
1822
a2f6
eae6
5c98
37b2
b49e
3a2f
fc1b
fc3d
d9be
0ae1
4ef5
94ea
5e7e
41d6
f0f8
1a86
79f9
39f1
d926
4059
7ac1
3fee
59c9
658a
73d6
7341
ea26
5766
1b12
5f5b
cd4e
47bd
69a2
ab0e
8032
22c5
f14e
33b7
361e
c24e
6211
7bca
8519
f506
2c1e
6775
8927
f0cf
2e71
79e0
38f9
fd81
3655
4bc1
6074
3b8e
a632
1c7e
132a
70c1
651a
4e93
27f9
612f
4e20
6a37
6e36
4c89
65e6
0f0b
ab09
ef42
99de
4506
3679
70dd
1e4c
897d
2188
1f51
c3ba
fd7a
278a
5981
611f
6e4e
ffd3
4fb5
4eb9
8b6d
5f2d
f16e
1def
5541
5547
7fce
1e18
04f6
3143
3589
8aea
7fe9
59ea
9e1d
3ba1
524d
66ba
7d92
63b2
2b09
41bc
5f0c
5bc7
1c3d
0c65
43d1
2efd
263d
c1d3
5cbc
51dd
dbe1
5f5d
7d35
2632
88aa
d179
638d
5999
fd82
547a
6043
0daf
311f
3987
5d8f
188e
2b17
6331
337a
1ecf
9936
78ea
4929
89ee
485d
5311
6777
2881
7eb9
51ba
80dc
0b52
1675
202b
62e1
46de
fe6a
8722
e1e9
38e8
2fa2
40ea
90c1
6ff4
13cc
758d
2a72
3ee8
63fc
3d64
d8a6
805d
42e1
4196
639e
09e1
45c5
747d
2e69
8bc9
787d
fd8a
0773
bb3e
59fd
92da
4655
1a21
66cc
f0a4
64bc
58c5
6cf6
7a62
4eb0
5e1e
21a5
f53a
203a
b0cd
2cca
5d4f
a0c2
1517
4fca
51c2
7ddf
6514
1236
20ff
e9d3
4855
2744
784a
1969
16a1
28e7
c2e2
f99c
742b
fe0d
4a96
fe8e
d276
698d
f33a
7be1
44fe
09a5
12d5
542e
31b2
ce96
fe65
215f
46e2
b1e2
51fc
78d3
7f25
09bd
4ff6
f077
3686
3fdd
7ec2
6315
9545
160e
245a
528d
59fb
2382
42b1
4669
26f6
21cb
472b
2061
9ee5
52ae
5a46
3c99
7d37
d34e
6a62
1f76
5775
2c1d
c53c
d51d
0a6b
fe16
c1c6
5cc6
3519
c50a
2317
0dd6
d322
480d
5ec1
4f77
71f2
7869
f152
754a
123a
0b39
16a7
3676
62fd
b020
2a3a
3b15
6c03
39af
619d
c395
7091
74d4
41e3
31d0
0a93
7daf
5ad7
a0a6
3d03
e065
e55d
da1c
49b0
dcaf
0ba2
ddfe
0c22
1396
3781
61c3
20bd
3a97
3fc6
5266
2ed4
77d2
55cb
c55d
2b3f
fa72
b626
6133
f1f8
e8c6
ed56
b592
3ff9
7c3e
bdee
1fbd
7afe
4095
db56
7630
8450
15db
7999
12e9
07ba
3abb
4931
dc8e
1389
71fa
72f6
5e29
b97a
fdf6
fdce
cd99
40b5
180c
8a22
7664
5e1d
137a
20aa
4163
65c7
4ab1
7f42
7bff
9e96
3f35
7182
0721
65f2
5955
5bef
3dab
47a5
42bd
5679
2b51
0d73
7431
adf6
3a41
1e20
ced8
274a
b30d
9a6d
4b96
8152
fdb6
75b9
255b
6b0c
f02b
466a
88e9
c15d
7d42
28fd
7e96
a6d6
af42
af3d
b5da
31e9
d2ee
614b
62ec
242d
f726
04c9
71d1
60f0
bb56
276e
6721
b516
3a26
fb62
3529
4eba
9d32
49e7
9d09
d7c5
72e5
7379
2a6b
5973
7c0f
33fd
0af2
76d1
9733
38b9
9d8a
593f
892d
0d20
67d3
3d6f
08bd
9d3e
16b3
4e8a
7b53
1b39
8f2d
5951
b933
f043
3528
3cf2
4079
1ec9
2751
78ed
15c3
39ef
7ad1
2d4c
267a
40a6
0d2f
270c
3f2a
d92a
3a67
a2c6
51ee
20a2
cd6d
1f22
7581
807b
fa5e
0fb5
6e3e
d976
67de
66ed
fd66
652a
8eca
6371
1ddb
5de3
74d3
31c7
1e47
ee21
2745
6989
6134
0a6e
e850
f04b
8003
cdc4
5af5
3415
9dfd
1bb8
4985
9542
f193
28f2
65d5
65f7
4ed2
39d9
bc0d
4d28
21d3
81ca
81f6
81ea
4461
25c9
a0b5
530e
2091
3085
091c
3c0d
650e
42a1
8833
5795
8418
7f16
5a75
bf55
9019
7cb0
54d4
7144
1f79
43ba
0de1
60f1
8bd3
fbd3
6369
1326
1d8b
1a67
4f96
394f
bbdf
cd4f
f0db
90fd
731a
2b7d
911a
4437
309f
5135
c31d
6337
546d
59a9
966f
3ea2
76f5
4c56
8b34
5e45
24ea
fb27
2f23
4ea9
4efd
2bc6
7b10
385d
5560
3d2f
f05b
3a43
914e
9346
4ecf
1fdf
274f
5bab
182a
3ce2
2ed5
8b30
e8e8
4720
3e98
b2e0
3c5a
3069
36a9
76dd
3198
65e3
ff4d
3ca6
69d2
085c
0821
7a5e
309b
6a9a
51ca
a5f2
f5ba
737b
3e4d
1b5d
3f9e
39d0
a098
20e2
3b3a
0726
4696
4812
9dca
8cc5
7836
3309
e342
0b6e
1bb6
6c46
f060
2db3
5128
2eb5
53f2
7df4
408c
b896
7e1e
0e5d
e272
1c42
cd98
e462
72a2
5612
31a7
19a9
2e72
d152
34a3
6a5d
2679
26d4
1d4b
15b9
69ea
a14d
2327
a367
5282
3d42
09e6
ceb6
fef0
49d9
ed66
7a2a
33de
9b12
1823
7e46
5a65
7dab
8999
128e
28ec
7bdd
2d4b
094a
84db
20a4
6ba6
0b41
36c9
1af5
6528
bdaa
bf93
a7d6
75c5
3322
95d6
756b
6cd1
3803
b2db
6e79
761f
5639
533f
f5a1
579a
8eea
a16e
b062
40a5
ad34
7a65
0ae9
57df
feea
2f48
333e
1e46
fdba
ff0f
2afd
08c6
4f20
fce4
4ece
489e
df52
c31e
73e2
37d9
43b8
5e11
2d4f
3447
88d4
366a
2616
30aa
37e6
0b53
6267
7949
5321
759d
415f
1370
b31d
15d9
4551
45cd
817d
6189
74ea
2a2a
517e
6e7b
3659
42c6
66f1
12bd
2f12
a686
7cd3
7d27
2253
397b
155f
0a71
423f
e0fa
344c
cb36
30bf
2d9b
a196
2bae
3fa6
4071
f0d5
189a
72b1
9d46
08e5
35b3
4cfa
52ca
1b67
34d9
1335
3acc
1895
0de2
4578
5455
1f61
adaa
22f6
9e89
3f5d
eaaa
8eb4
580d
74b8
1929
5f27
f929
fa3d
a711
252a
5ac5
86bd
1f82
7e6a
857a
1623
569a
95d2
dcca
0732
4ade
315f
b13e
40a7
4523
743a
59a1
519c
d922
4bba
48d0
6957
1341
0cfe
3a0c
61dd
20e9
5a15
81ee
b9cb
fd2d
3049
0b5a
6b6a
5d53
b5d3
1711
f63a
04de
fdb1
63c6
7462
273e
f023
5649
e8d3
55ed
f11d
4947
1453
55f1
7f51
ef36
f35e
92e2
7668
e8ce
7812
ed29
083c
6d07
d589
4035
17cb
5ef0
085b
2a1e
49d3
0898
36ea
c366
34f3
54f5
0a46
1a6e
a13e
2b22
135d
65a9
730b
0b15
738e
62d0
7617
e8e9
5c52
8165
649c
a24e
21f6
3913
99dd
631a
4063
4465
be2d
5cd2
3067
0756
6570
8bb9
44e5
1de5
b80d
3e1a
2732
891f
3c98
fd56
f429
ad1a
7e15
973a
5296
22d6
f01b
fccd
083d
3b95
1cc9
2737
3622
7948
fd7c
3320
7259
36b9
3bc2
3547
e385
c0d3
6673
ff04
1913
783e
742e
1541
5743
891a
5cd6
68b8
a999
46d4
56a2
5442
e76c
6a69
179a
60f9
7d43
253e
42ef
2bf5
2a76
213f
18a6
28ae
6a8e
7b65
bd12
69d5
b22e
88be
d1ee
177d
cb2e
237d
7952
2426
319f
5deb
3d8b
b50d
7a2d
4ee1
5716
eaee
8f45
4786
4307
523d
7349
5c86
5d70
4835
edea
51bb
1492
2ebd
6181
529e
fcc3
4b2e
7722
98ee
77e6
e54a
0b76
72aa
3a88
3911
772a
c696
7c7b
456e
4f07
9549
d5ba
ddbe
2b75
22aa
3f33
8be8
7453
9e99
4d4c
f59a
452b
077a
4117
f450
e406
7efb
e09e
3b32
23d1
e116
7e55
3e55
3fca
713c
2068
3549
f55a
4eed
1e97
2ad2
791f
6cd3
12a5
9e2a
d93a
5376
ce92
479b
7e39
ddae
e58a
8097
20f9
0aea
745d
77e1
72cd
5f82
5f48
99fe
833d
edc6
44dd
4809
51b7
6568
80be
0bca
0a81
d67e
44b8
07b2
7698
86b2
54f0
4e92
5aee
ea8e
7c73
a320
23c9
8799
6876
fd92
b00d
182f
2b96
3b79
5dab
12b8
62b6
4e85
1960
3537
51f1
7993
3341
927a
77a6
4b79
3595
47e9
6ef7
7c68
3793
51f5
88cd
28d9
4b8e
3051
7eca
d09d
773a
95f6
541d
2636
0d7f
cc56
45bb
74a2
25f4
234f
3dd0
6ca5
a54d
d582
e8d4
463b
4d78
18c6
39de
37f6
ddc9
7476
724d
6c86
54be
0bcd
3635
52fe
7086
60d1
fd67
43e6
35d5
57e6
334f
4d8f
7206
6afd
1921
7435
1b03
f532
7bd6
88da
7482
0c63
4f47
6177
796f
4439
ad46
ad22
dca0
16fd
3afe
3d44
129e
0714
3b75
3bb5
81da
26ee
4455
358d
551f
8fe2
dcc7
3718
18ee
4af8
3bb2
22ee
34e3
6eb6
7a9a
5698
4714
7333
236a
410e
64f8
5642
7729
2019
4d3f
2eea
1a49
6b42
bd9e
0707
7995
bb61
0912
bdde
d1be
7511
201a
e821
2e2a
9d7a
9fd3
7c9e
c04d
4661
f2a6
5a4f
221f
b2ce
3f3f
5fcb
5a71
e9f2
09f2
46ed
85ea
75dd
17de
e0e0
b08a
72ba
138d
2bed
21c5
2393
c6da
7b95
2aa9
9d1e
a4ce
e44e
2452
a6a9
5c9d
769e
0739
6a96
66fe
dd1e
983a
a306
a31e
2d64
95e9
a4dd
f472
17bd
51f2
dd82
e96a
3e49
227e
316a
3808
4b7d
0aa2
af82
4f0e
2a62
994d
783d
2dae
95ba
72b6
42b9
084e
3cba
5ecd
2755
6b0b
0b11
c62e
d97a
913e
23bd
80b6
304c
38bd
71b1
414f
718a
1530
7baf
a579
4689
ebbe
fa8a
3b59
1f5d
4121
25b2
8fd3
8bee
3c2a
351b
08fa
3f8a
7156
67b9
6b7d
2c31
2372
4693
881d
1299
7386
3557
086b
3d3c
2059
864d
0c92
4109
ed26
4aae
fc77
bc49
149d
463e
5d9c
9652
1e68
3013
4535
7997
6e51
4331
3009
7839
57b6
c5d5
2792
0c1e
0ffa
fba6
81b8
f586
9b21
2095
3aaf
1a79
394b
9192
ed7a
2323
3da4
f13d
6a71
218f
21b9
bd0e
70a9
fde9
7c6c
d726
340c
99ee
1e58
fc16
f196
1fb2
4bcb
3a8e
771a
21d1
7d91
768b
131e
9342
2c62
f5a6
75d1
7345
63e9
44f1
dd71
682d
c49b
c5c2
600b
4723
1c61
73c5
5b84
45f9
672a
0c62
0f26
fee2
5f4f
c552
f562
4e95
8712
47f1
6007
1e0f
6c21
dccc
dcf3
1860
3a99
7c8d
212f
3927
558d
7682
6b79
8f4a
b15d
900d
e9bd
3ea8
4b86
1abd
3bd2
437e
1351
312b
2b07
55dd
4e9d
af1d
c38a
7d86
e8c9
531b
34b0
c1ae
5d88
95dd
f5f1
beba
6557
66cd
7466
9bb1
ff4e
1b41
1fcb
48dd
4039
408f
5745
6a2a
15ce
0f0e
354f
51b3
7567
7930
5919
6375
35f2
7f09
4a5f
20c3
70cc
fab2
ea42
d1de
7177
7a21
17bb
f649
ff72
221b
5845
3809
76a9
9e21
4f4b
ed13
8733
3e31
556f
6c22
cb2a
2e5a
2e6a
ba72
7798
6849
0997
c016
17f9
65cf
f332
43e2
fb26
0927
f7b2
0719
8242
86b8
4333
23cd
3cc5
4a9f
3f52
391b
38c2
74bb
3014
545d
37e9
57c2
1377
2324
4cf3
79cd
175e
5366
edb8
17a5
b5c5
28af
1efb
1e94
3c9e
3875
9d3a
31e3
246a
4fe7
8f6a
9c2e
5ad4
2545
c124
0b49
4ad2
3af3
65a1
c47a
75fe
39fd
b13d
996e
0d53
3dc8
a0a2
88ae
5fbe
20fa
0f60
77d3
351a
15c9
7772
dc97
dd1d
2124
30d0
e9b5
46be
1e51
430f
0be6
28bd
5ab8
8332
dde8
65db
8df6
46a1
67ba
d15d
257e
7122
75fd
72b5
2662
ba96
a4bf
48d5
1b51
1f8a
ed06
cdfe
390e
3da7
3693
90d3
0c0d
082e
5761
906e
2b69
6b31
ddd9
2de7
e1e6
25a1
a996
6875
278d
3c95
0d74
5f25
0e8d
9976
8867
39bb
c427
35c3
45f1
7981
c04e
6a6a
e8e1
b704
37c9
4fb6
9408
172f
d05e
3e41
e5aa
fd71
474c
811a
35e9
08ae
5c32
537d
3c63
955d
fea6
30f9
7d57
31ac
0ab8
7b28
d1a5
7304
2aa5
3ef9
0da7
1981
8d22
28f0
1e23
0f15
a7ca
13e1
4de7
5521
4b61
7315
555c
5ed4
37f1
3d27
38cd
5543
ffe6
9f56
599e
7749
5446
4295
3f2f
3b5a
7792
48e1
4d0e
7d8b
2a4a
861e
1f30
1ffc
6809
40fd
925d
70f3
6977
4fd9
4819
5c82
47b1
fad3
43fb
7598
41d2
5c45
4df4
753b
3a6e
5741
685e
b598
5cf2
f078
42e2
5e59
04e9
0dbf
3b25
76be
fcd6
48cc
3044
3304
751f
1776
d229
79d6
183d
1a09
c11d
378a
23fc
1fb5
88fd
80d6
1f25
fa0e
5fff
6047
3f08
9152
0d5c
3313
12f2
6241
a66a
63ca
7325
eb2a
768a
4e24
e712
19e1
5382
c8d2
b112
23b1
0f2a
0b55
0736
65d9
9b4a
3c51
8989
2e9a
7b9b
3fd4
8a4a
7870
fcc5
2a75
5f17
bde6
add3
4ee5
2115
582d
9341
41e7
31b7
c952
2577
9db6
3ac5
4568
57d4
563a
4bf2
6511
6033
4160
99da
81ce
728d
0f51
3f61
7e0d
b5aa
6623
4491
47cd
cd08
ada6
20b5
8bc2
66c1
fdd6
4061
6929
125c
0bbe
309a
5ed5
5eb3
44f0
d55d
e9f5
62a8
6747
93bd
8a12
4a98
a27d
66ae
801e
35e5
7982
4143
60f3
566b
3c1e
4f6a
81fe
684e
3982
8e08
ab3a
2bd9
2276
59da
b91e
78fa
5852
bf2a
078e
fcf9
1221
3ed5
3e26
c18a
27f5
7921
3a18
3ca5
78e1
75c7
0996
333f
4299
48b8
24f7
7a15
ab62
1344
1dd7
fd12
7b23
f52b
17b8
81f5
4c86
46f2
0735
8a5e
4c66
1e3b
5df4
1cde
686d
6aca
4415
d6d3
5a36
874d
d162
2298
4d9f
5fcd
7106
400c
2d5f
4730
25b7
a04e
20d0
3e92
4f14
1fdc
61dc
4be6
5591
5cd5
a9d9
1475
7b98
22a1
1d58
6339
0822
1925
12de
4f51
4f7e
b51a
7db5
3586
5939
81e9
ab1d
5f9a
8814
6e19
3315
dcdf
4b26
0f49
81a5
672b
1d9f
d58a
ff09
7215
eb9e
5f5a
f3f6
306b
34a5
3fba
bdf3
7a25
5cc2
c74a
24d9
43a9
1a71
deb6
ef32
685d
536d
51d5
d542
92f7
1661
2071
1f38
5ddb
3db7
81dd
73f9
39a5
3cfa
79d5
831d
7093
ab4d
2b46
2db0
21e7
2185
79a9
40c3
7aae
5271
25fa
7c0b
ff66
7648
5afe
35d3
3963
0e52
e5d3
3424
4d30
4773
6359
8156
d721
12b5
0bfd
0aee
6615
399f
90ba
e04e
c117
915a
5317
b3e6
a30d
2399
6aa2
ff41
c14a
77de
7ca5
4c4f
38de
2fe6
3767
44f4
5d28
7141
f5e5
2b85
6e89
7977
2398
26e8
0a55
c31a
25e9
458c
4b03
6737
b042
5ef5
19d9
0f1a
fecd
4bee
3cf6
d53d
7aee
20e7
3ad7
e0e6
6c55
44c7
5711
871d
7307
727d
3bd6
7163
09d1
3597
524e
fe48
59c1
ed3d
c6d3
58b1
67a5
48b2
dccf
20cf
62e5
76a5
3826
4c2a
cb91
3a27
1e7f
fd61
2cae
c391
4570
13ab
7ad9
5782
2ecd
35d9
136a
19d1
dcf8
4e9e
0dcf
d966
25d5
83e8
146a
3027
7e69
e0e9
b696
2559
21b6
22d2
2025
4c4d
1adb
2a35
b009
a1ef
386d
1eab
8eb8
7c1f
544d
33c6
46b5
ecda
9d91
8b71
e216
4357
f645
1b70
ef52
ed6a
5a0d
ef0e
54e2
4614
2611
b956
4679
0e55
ae2a
593a
81d3
2566
3487
950d
17f2
1298
ffcb
fe1a
918e
63da
8566
e47d
ad1e
3649
69f9
798d
de32
7a69
4ad4
debf
a99e
677a
38aa
6926
1a91
47ce
444b
4ce6
0d7c
313f
7525
17e3
26ca
084d
2d84
c045
2279
631b
20ae
2f65
f02f
0a4d
0d4c
3892
e172
3375
4c12
1e77
34b7
5393
1ef4
fc43
5466
1c9d
91bd
6a1a
7129
7a9e
905d
4f79
e8da
fd43
6e03
5193
18cd
1a45
5e8e
5198
1d6c
cd76
1935
675e
c755
8de9
c288
7f9a
1a2d
afd3
1cea
e455
1565
33b1
5a2a
5349
0b03
6767
1cf5
89ea
d56a
1a2a
bded
570e
e346
4be5
e062
622f
30b3
e7ce
662a
fe56
901d
b1a2
44c9
71fd
a0d2
1222
b8c6
7e95
6b46
3e45
2cce
14b8
957e
40ec
0b67
62f3
5fde
3117
f4d3
4b7b
23d2
754b
7924
73e6
56c9
5f79
d9b2
46da
305e
5a82
bfda
a30e
4aa6
1e88
6a55
8017
9dea
a2c5
8933
789a
f1c2
bd9a
f850
0b09
22dd
92fe
07ce
2b33
a9d3
0d47
39ee
4611
3a39
2a6d
0845
fb28
a27b
1a95
0eba
1998
6812
fdc6
27ea
b30e
0bc5
98b8
fe63
587d
fdde
3922
42d2
5cb8
b02a
3b9a
71ca
b0a6
3343
db98
121d
1614
28d5
d2c6
55b6
a96d
e516
4943
34ef
2e1e
9151
c942
4113
6e10
33a5
c656
08d6
63b6
6708
17b5
0e98
518c
ec32
4436
4511
5d64
dcc3
73ed
3099
0f5a
8aae
7c53
c55e
2ef5
e24c
9ded
6e1f
2889
26f0
2ae6
6b55
9d30
f366
1b1a
8f69
42d5
6ec1
5e9b
319b
f37a
25f9
5f2a
55a7
6385
6939
4c5b
3bb1
fb51
ed19
1fb8
0abd
1cb2
3428
37a1
51b9
e30d
ad7e
2c6e
483a
1547
27ed
0729
4c3d
3a35
e78e
7b97
085d
b74e
184a
6719
35d7
f51a
34f1
69c9
b1b2
a0ca
7ed1
7c77
8f56
0d13
23e6
e965
1309
6e8a
5abe
8947
31e7
6b09
4289
6698
5e81
4886
71da
5ddc
4441
8fa2
4c16
0eb6
6a4a
4f4f
3c2d
22fe
b672
ef3e
330b
6591
7f35
f97d
8f06
28a4
98ba
72ae
1355
cdde
f073
661e
e931
3955
389e
9dce
6fef
218d
bd4a
0709
7e1d
1b59
b24a
5e3e
8f6d
f51d
1472
0a12
3b20
a936
30f1
4f71
31e5
21c1
8aed
1333
3cb7
d8c5
425f
0e2d
fd36
a1ab
7515
f146
c770
d56d
a0e9
7bf9
2129
6cf2
56f0
8276
38a2
48a9
553e
5929
165a
56d2
2151
09b5
09b1
9332
376f
748a
3ed1
d94d
7747
587f
1f8d
1cd2
479a
5dff
6699
dc8b
f66a
e2e6
5985
617f
66c6
5309
5736
5cdb
185e
e6ee
7319
2a64
1fc6
5f19
38b2
0b92
084a
e9f6
3548
3ea5
17ea
3c8a
63ce
0b31
23ff
137c
bdd3
74fa
15cf
2b30
8f19
a175
98b2
fee8
3cd6
1c9a
5dfc
737d
5d58
d5ca
49e9
5d3c
1269
163d
7221
1ebc
1ad3
2b77
3c8e
3c71
e8b5
19ed
2d38
445f
6ec2
2343
ed4a
d5ea
4193
df1a
44a5
81d5
16d5
7658
5614
59f5
7e32
7a4d
6377
360f
6144
0ab7
e4f2
1fff
7119
20b0
462f
6eb1
7f29
2f9a
a972
2014
40f9
1a31
f643
7ba1
49fd
524f
5a7e
ea1e
318c
8592
e33a
47b9
20b7
7e43
7c96
5fb9
bd22
1796
20f5
8e11
6855
48bb
64f4
0b25
7151
732a
692c
cda2
4c81
2655
9142
662e
82f5
314b
c850
9ced
4667
5429
15e7
6521
04c1
6391
758f
8b0c
28d6
4c49
577f
2677
7759
b72a
6178
16c9
5729
8f8d
5cde
2715
4b3c
615b
ab26
2d3b
1a4c
feee
a96e
1ea3
2fb6
2221
48f2
39ce
df3e
312f
fb2a
211c
7a46
096f
0d7b
5d27
e0d8
d072
318a
8ded
19a6
35a8
8fe1
4086
c6b6
7c1c
207b
0aba
6689
795f
7436
4d8b
164d
6219
56f3
381a
3849
132f
6a76
d032
2d1c
09d6
23c2
e8df
6704
9e3a
3c59
1c51
41a9
2dbb
543d
8709
6e1d
0852
fdb2
16fa
7f1f
3afc
6671
5ab9
c712
8016
ed25
16da
5991
65f1
ff7a
2c52
5312
25cf
14b2
cdc2
6525
0add
5eb5
1992
2364
378d
6899
fdd4
4a79
708e
7355
4c42
e206
1b8d
8dc5
4db7
13a5
7f8e
d245
599b
75cb
20ab
5ac2
2585
399d
5986
7a92
478c
178e
0b72
571e
0ebe
1b99
4481
5631
7786
46eb
3cec
35cc
659e
1aed
c419
3deb
7f7d
0ef0
4577
6ac2
2e89
5ec8
b2f6
4291
04f5
76d5
5947
48c1
409f
809f
70f0
23d9
719a
689e
5ced
c33d
aba6
61b3
8815
9e7e
2f19
df4a
49e1
455f
7a5d
42cb
6645
ff5d
4def
7b2f
248a
3403
635d
f566
70b7
ead3
379d
fa1d
d146
43b5
b122
276a
3f0b
a0fd
f03f
52c9
3033
6aba
2b63
7b72
776a
a526
4a63
2b65
2714
318b
344b
a592
42d9
72ed
2612
1ebb
271b
04c8
2e3d
41dd
749e
1ba9
75db
2085
7b6b
ff19
4329
517b
9191
fd75
feaa
403e
1765
f5df
09bb
79c1
a0e6
5ba0
ff36
2394
2a3e
1f29
2313
bd8c
d066
90c2
528a
2b47
2d68
25bc
08d4
3cfe
6efe
888a
ed12
8ff9
9579
55a9
67d4
e49e
9272
463d
3113
7116
7366
5ae9
54d2
f5e8
5725
52d5
1629
5756
3f47
4f12
94d2
26e6
d5b1
0722
4af1
0f53
0e82
8bc6
febc
22c9
b3b6
3187
7e76
3b35
5c8e
9c75
a712
7b27
62d9
956a
2f56
e94e
833a
e1a5
0c6d
0cf6
57e9
0b38
36d1
60e3
469a
ab36
6955
c68a
8f79
3d4c
3777
4197
abfe
fc15
89cc
71e6
8ffb
68e2
816d
19eb
8ffa
b9ee
8911
9c5e
41a5
20a9
598d
0a79
3b46
5914
45e3
75e5
9c63
5e0c
6010
16c1
3943
30a7
a32b
4469
9dc9
25e2
e731
90b6
69fc
36eb
7d78
b065
5281
d04e
1b98
5157
3f66
364b
534c
198b
392b
527f
4c31
4ebe
5e91
3acb
f9b1
7623
56a9
49d8
1dcc
432b
87f2
1535
a15d
2cb9
f11e
926d
6229
24ce
7620
e907
5676
22a5
4930
84ea
2e35
5564
7245
a1d6
a70e
cb16
18ae
6058
09b9
ed7d
e316
f03c
5bf0
3b55
97e5
d172
60f8
0f7d
2741
8ba6
1272
362e
2a45
3be0
484d
7ab2
16ce
4168
08fd
7a19
5c3d
2303
e03d
6941
6642
3786
ed36
58ee
2d23
d51e
1720
7819
5533
bdce
5431
90cb
4b11
5f1f
6ac1
cc09
7d08
78cd
34d3
6303
0f34
deca
1f52
48ba
43d6
377b
6e7e
2897
8b33
8b44
f29d
463a
4a8a
6ca0
55bf
1435
f616
2216
1f1f
e972
d34a
eff2
4d84
44df
d59a
d0aa
217e
e59f
f5c1
40dd
0b45
1959
65ae
8b10
fee9
35f0
85e7
4d87
46d1
3aa7
a850
09fd
6ab6
3fce
0816
a31d
f72d
4060
09f1
7222
4b53
b285
772b
3cae
90d4
46f9
3e35
6e58
90f5
2a19
1fce
7851
4fb2
41b4
4eff
aece
3b1b
c16d
e179
6ee0
f004
8c50
4f3e
2759
2b2a
c54a
7263
36d5
8b62
b72e
0da3
d621
04fb
77df
1de7
2fc5
4b63
23f9
2712
1c17
2359
37c1
435d
740e
7514
7a6a
1f72
0c1d
18d2
1d06
e7d6
883d
84c6
fd6b
54a1
7b03
a4c1
409d
f615
3763
5d68
0bae
30e1
5714
4f27
1755
28cc
fe59
235e
5e09
6114
5b94
2615
3ecb
2328
2cb8
2689
7b31
887d
4448
f651
a48f
9b32
1e44
4343
51a3
0c66
0df3
48c5
8f0c
20f1
4ef9
2e45
7c92
91d2
1c12
683d
0963
62d5
8bb6
0860
7c9a
e57d
6e55
665f
1fd3
d3fe
77ba
8dda
3464
34a9
9571
39a1
3fb5
81b1
3353
308d
ff15
1f74
4944
544a
4ac5
4b56
6641
d876
9b0d
cb1d
fa9e
39c3
5395
efd3
a346
9b09
730c
39ac
27c6
44f9
fd29
5a06
968a
0751
60c3
238d
a0a9
7afd
7944
4396
1381
7468
65af
a2be
3ecc
9185
1257
5a41
2dd7
fff6
1c1d
5d37
7ee1
3bc9
fc08
40b3
fa16
fcdf
599a
5319
57a2
535d
ab0d
33e9
4682
fed2
af46
733a
c03d
3b14
4f1e
fce7
3be5
62b0
765b
a696
415b
585d
1daf
12dd
adba
6037
6ada
3f39
28df
f611
39f2
df55
637f
1d33
4037
c93a
66e6
3eb2
b2c6
48f0
4f66
d2d6
52fa
4cd6
d0d3
120e
c1a6
4737
7479
4ac3
1e82
2d44
4f75
59f9
3993
f0c8
14c5
ab3d
5e77
59d9
f1a2
24f1
908a
1f7e
dd8e
b4b8
d185
9633
6649
604f
343c
2015
6b71
94e3
b589
30fb
6a4d
f50e
7088
3cb5
f5ed
809a
4663
30d5
44da
1dc8
3ffb
81a6
9472
adc1
5a22
8a6a
4816
3d48
6afa
3839
f625
6af5
5a19
2f9e
7c18
edfa
2ac5
6e4d
b03d
d026
22e9
fd41
67a6
4022
0a65
ea4d
eefe
d450
5cbd
4fb8
ff18
bb4e
5d09
9997
e1ce
8ef2
74be
760f
2af9
5726
3b09
573f
89a2
3630
567d
35de
19e5
35f7
4a73
52f5
2cb6
0caa
9d7d
cf62
4213
1b14
7c8a
c1de
5875
f1ea
0cb2
8bcd
2625
0955
5c39
13ff
2e93
0e15
3ebf
e621
1b07
2eae
31f1
5793
40d9
82a9
eefa
ee63
7892
47ed
7195
778a
71cf
b513
60e0
fed3
4de0
5db4
36e1
a4e6
34c7
339d
0a56
52ec
4c5d
1c5d
bd1e
cdd9
35fb
3df7
4d2c
7085
6b6d
47cb
1d97
1feb
5209
e556
6030
0976
4d17
8dc9
2d60
2a03
d9d2
f9ea
5a52
5f75
6c1a
1cf0
db1b
fd95
365e
d5fa
80a9
1d27
59aa
9042
5aa9
8d2d
688b
5fe2
c55a
40d7
7e65
d850
751a
3063
5d78
e90f
18de
a6a3
f9b5
19ce
f966
78a9
2c6d
3f72
ee9e
1872
7f39
7e5d
8b4f
f116
957a
4414
4acd
7317
193e
8d1a
fdcd
6e92
3644
e2ba
7459
4edd
0efb
6aae
7b7b
7c7f
65a3
7a41
210d
f9be
2e9b
f935
934e
86ea
d5c8
1bd2
1d43
401f
37c3
3db0
5f67
5681
e97d
4ce9
89b6
d06e
599d
71c5
735e
0e63
15d5
b739
7381
25a7
513f
6399
f53e
2899
60cf
5ae5
5edd
5d18
c5de
b55a
d7da
60ff
2261
a132
85fa
57fd
15bf
75b1
07a2
35a1
c1b6
ada9
eb11
fad2
4b14
1973
5447
8bed
5518
ab91
7e17
b27a
5353
0b0f
80b9
7a52
1349
1cbd
2df7
47b5
3ab3
e656
88b8
a06a
f9ed
4223
256e
6320
6922
b20d
1886
72a3
918a
c896
2293
3019
0fbc
37a9
7209
88c1
f09b
4bf5
522b
6a21
5856
04e3
bb26
0d3b
e944
4b0b
5f03
fe08
ffd2
1ddf
61f1
6bfd
9010
4f08
4537
8d2a
73ea
4651
4bea
62cc
4381
0cde
b1d6
2333
5e75
ddb8
e42b
7c2c
a522
4220
7e51
7b81
deb2
5cf0
95cb
3ea1
39d5
e34a
2f8c
8f81
3d5c
f14a
3be6
4791
f582
fa0d
0a9b
6686
1bf9
9189
a52d
79b7
7d3f
d9aa
72bd
2e75
ab7d
5a9d
8798
098a
1513
23c5
4595
5f6a
9c50
fc0b
e1c9
e71b
6c1d
4de3
a74d
0f2e
0da4
22d1
7a75
305f
cf76
fc09
58a1
6660
66d5
9916
9155
7446
8ffe
44d1
1851
20c5
8ef6
2c98
9915
3307
7d23
870d
beb2
0e72
2a60
943a
1ff9
1bea
3c49
fddd
6b89
3147
161d
98d3
4a93
5d7f
c122
e1fd
f0e3
7bb2
9dd6
8ae9
d142
39a3
17fc
8c96
0949
d9b8
4cb2
2b9b
8d15
7fe8
e521
80dd
82b2
a93a
e816
4209
5ea5
1cd4
4728
5a45
e33d
69aa
e599
42ed
1e6b
e71d
6688
1c49
7a59
4b38
388e
c5fa
3825
4431
cf0d
69df
2b6d
3e2a
4fd2
bd16
7fe5
3573
b55e
30e6
2b5e
5a8d
1c86
4429
e432
18ea
4128
8453
6b39
22a9
1acc
9692
c096
5bd0
9d45
b6d3
4392
f5c6
0ace
cc0d
1a39
8c46
4313
b2a6
f044
619c
70a8
3467
4fbd
7a79
721a
eeb6
fccf
36c5
2dd0
5882
2e36
2fed
7e81
822e
c692
49f9
1946
8d52
95ed
798a
fd87
e74e
2e95
0e6d
815d
4be2
6113
16d1
181e
70f2
4d5b
2f0f
6988
673f
8051
226d
0933
3c86
5727
12f9
d717
4698
ff55
2d18
19d6
31dd
6313
1963
516b
3413
6771
49df
4874
af35
8922
4692
f639
2d03
6cf5
3ae3
0f30
8b67
fc29
7d9f
a55f
33cd
76b7
3b98
7145
1574
3d0e
d739
215a
5f37
b137
9846
e8e3
dd3a
4c91
2ec1
38e6
885a
34c4
ffb2
1627
7688
46c3
262a
6bb8
3177
8ff5
33bd
33ec
e0fc
8f72
634b
9d2a
953e
a9a6
0a52
1e10
8181
1982
24c1
590d
5e3f
185d
4bd4
2647
5cff
b44a
0c91
4b0f
77b5
e80e
9b2d
72c5
5214
77f0
0d1f
1dec
3da8
59a5
807a
0bd2
7d15
b19b
6b95
5e8d
b71a
88ee
c967
61bc
fb86
346c
630b
1819
0786
425b
2edd
8e52
61f7
be5a
36b1
2217
1fc1
2131
855d
b185
5efa
2255
e1f2
a31f
e9b2
19c9
61b6
7b8d
22c1
f18a
c34e
80b8
dfc6
a6e7
3ea9
a53e
18ba
526b
1e2b
fe41
7978
3de7
5439
4a95
f272
ff81
5eb9
1915
c9fe
4ddf
2f0b
8562
8809
461f
75e3
8342
9032
3611
797f
ed2a
1f20
09ef
852a
0b7d
3091
51fa
74da
67bf
7fd3
fa6d
474b
58c6
6770
3319
0749
607b
f657
585a
0897
7895
873d
6223
5915
45a0
6be2
5ff5
7099
73ff
45cf
67b6
ca81
fe72
8ed3
894d
355b
7593
3025
4927
ebca
3b71
09db
d31d
854e
a40c
b9b2
85d5
623e
5733
5add
b2dc
a352
126f
9a96
0765
4218
bbd1
fbfd
3de3
d962
3a6f
1b22
788e
82d5
a73d
dcf4
3678
739a
3078
2eaa
719d
6e9a
76a3
1c92
27fa
904d
f96c
5593
8f25
1259
0892
8135
f06f
ed9d
4031
a07a
903a
697f
1b11
e4d2
133b
8463
20b1
1ab1
2f13
8d1e
7ac2
21ac
2069
68ea
2514
5f9d
6e04
4b37
dbd3
16b9
4b5d
4bb9
0f19
8bff
7bf5
874e
59d1
5744
d2ea
fc34
8919
a747
14e8
5921
2b4c
4557
7c07
e9ba
74ae
0e3d
0715
4a9e
4aea
ff45
2f43
7714
3dec
6227
2e57
7e47
34ff
fc62
3995
7546
f761
8021
cb4e
077e
52a5
535a
679b
347b
68cd
a0e5
ea39
d216
780f
44e9
3ce8
154f
447e
5515
d5a1
b022
b958
0b07
25bf
5537
5bdc
fc1e
8f17
1314
cdc1
a5ee
779a
1da0
304a
9966
a5a5
7a85
b03a
318f
5cf8
75cd
2e19
19cf
7fed
7cbd
433b
7864
396b
d01d
4ce3
2a49
2396
6330
557f
24e6
743b
1ae1
0ec1
5a9a
6c72
d536
cb62
2133
1c37
4ced
fd64
9d67
43d4
4028
2ef0
bb2d
8f32
5da0
cf1e
0e06
7eaa
28b7
60c8
7e23
264b
fbd9
ec8a
21ee
7be6
310e
1a16
7653
6343
34a8
2531
3671
21d7
f9d6
09b0
6b23
d042
42f7
568d
fb45
fc19
453b
179e
36d9
709b
41df
c5f2
4328
2281
1dac
44b2
cdc7
3d60
a559
0f8e
d54d
28ee
5bf4
3bba
229f
25c7
991d
bcca
2569
54dd
a51b
db06
5286
e596
91e8
b179
605f
1b8c
09b8
72e2
34db
7dcc
601f
46dd
66b1
f1ca
2406
25a9
2e9e
ff39
799a
0967
3543
76fb
5e85
487a
1c0d
3522
3787
59ec
434b
c5b8
6e39
5fd6
dd52
f5f9
55a3
7fca
c64e
6c0d
7725
e33e
e162
a5c3
e20d
177e
0df0
5513
a51f
a236
e61e
197b
5511
d8b2
15b0
face
60ef
5bac
6cfa
6e45
3c0e
09bc
c03e
2e29
f44a
2549
5d38
c1b1
ca62
ea6d
70af
bd2a
336d
e906
6ae1
eaba
edde
18ca
2e66
7b3b
2d17
6120
693a
3ee5
5ce2
c06a
c56f
3a37
089a
b9ca
45b0
23b8
5cfa
fcbe
0a2a
3abf
fa22
9ef5
3ffc
b32a
b7fd
71c9
a9fd
9621
4b4f
3095
0e92
af16
c316
2def
e29e
09f7
5170
8d2e
3617
bbbf
0849
8811
df0d
ad93
7a45
141a
41d7
90a6
1551
8772
b9fd
65f9
d7df
5ebe
7913
1c16
684c
23b5
7309
3b47
221e
6e59
0a5a
6bdd
5fb1
708c
fc14
d125
37b5
430b
1e87
9f6e
a34d
e456
41f3
8079
eadd
defa
a752
9b0e
27b8
51bf
b48d
f5c9
52b8
f5da
3cb1
36b2
437a
1d64
51c4
673e
9989
8bd5
fb97
b1a6
3778
6e99
4b44
60fb
0ce6
19c7
ff22
dc87
186e
2227
47e1
f1f3
3312
7a12
1656
2275
8ae6
51b0
8951
0d8b
2eab
0b30
2b78
2fde
8c4d
d93e
4dcc
4049
4285
5aff
fe47
3eda
4970
d84a
895a
45dd
3365
0e2a
0ee2
1b35
b450
0b0c
f22d
2a92
6bd9
6bc5
f91a
cd1a
f589
4af3
36bd
4509
48c9
5f0f
85ae
16f7
2659
63f9
75b7
181a
0aae
30d9
2f1b
5323
f962
8581
4097
c0c2
faef
418a
997a
e2ee
8d45
75ef
2041
f35d
4610
da60
1c14
4124
235f
317f
1ea0
5be0
99d6
4832
f1ae
a1ee
219f
52f7
76b9
7b93
67d2
35db
e06a
2e3a
59c3
610d
78d5
e549
1a29
2222
b91d
44d9
490d
6bba
6c6a
35bb
60f7
2ee2
3eb6
8f3b
a94e
48bd
675c
2535
8c65
fe0e
52e2
1e6f
e052
1fdd
6851
d1d2
786f
7dbb
80aa
09ed
42df
5fa6
5fba
e53f
7b67
f1e5
ab76
137d
44b6
dd62
3fb1
4499
7c30
d32d
fa46
04e5
7831
0bd1
69e3
7bb1
5ccf
6381
9ad6
c256
6874
9a3d
d642
4efb
f6a2
d95d
6158
1eeb
3f5e
413b
bbfe
65ec
1d37
77b1
b167
3e85
0c6e
7c67
6cb2
37d1
d566
209a
2247
2d1f
53a1
2248
091b
0ea6
4fc5
c58a
18c9
30dc
3092
7eb5
9f96
7d84
f2ae
451b
7a99
fe6d
3517
2acd
355e
5fb8
e582
3847
5629
2292
b6aa
40c7
093f
7853
31a6
a33d
8e12
3d4f
7ab5
ff6e
15e3
95e8
d12e
ef2f
2fc6
23fb
6991
1651
3a44
7c6b
69c3
77c5
f5dd
56a5
5efd
1f7d
78ee
9a9a
5e15
fa36
1c82
653c
bd81
b136
4fed
eb0d
1753
6a77
04ed
59bf
77fe
9ec6
334b
1859
31d3
0de7
60a2
f1b6
56b9
5ad5
13d6
3d20
e4b2
effe
b5ae
0e4d
488d
9de9
5523
6691
0eea
7f7e
7f15
4c51
b095
194a
3f85
399b
a1bd
1a75
8621
3b63
fb25
bf22
ee3a
763f
ce79
cf12
f63f
26a9
1bf5
5cd4
88ba
a72d
9709
28b9
1489
5a26
48be
c9c2
ed61
19f1
4f03
911d
1e27
b0da
9f47
d281
c560
2cc1
9011
92d3
e1bd
42a9
4edf
30da
dd66
620b
d561
1262
0bb9
e74a
568b
2b7e
2403
7d0c
0b70
4ae9
666f
b5de
7726
3359
fe04
82aa
d99e
49fb
b716
5557
5ac9
a01a
5984
4c59
fef3
2d70
7449
55cf
2063
45bf
3be8
c12a
ab21
4089
9061
6ab5
668e
14ae
395f
d136
370c
44d5
52be
cf4a
5b9c
ea5a
3768
f642
6998
f9fc
6c71
2353
24f9
7799
81cd
f9ee
4627
8d16
64d0
9db8
88a5
e1f5
80b5
5a29
faa6
89fa
6cc2
78d2
1fb9
c082
4b6d
e6be
fccb
8f82
a9b2
0faa
3eae
3764
4d24
6e3a
7563
f07b
e6aa
48fa
2ff4
e5b9
ffe2
36cb
40af
140d
d712
7ee6
6bd4
a16f
360e
205e
8b61
5e73
e651
b16e
cbfa
072a
1eb7
24de
a06d
3832
7d2f
1f6e
fc68
6cee
4588
5f66
cf16
86a2
8c4e
37df
f010
4ea2
26cd
134f
e5c2
2456
6eae
62a3
1e2f
1f92
7442
0d06
4019
5a08
2b6b
09fb
7735
f596
2ffd
301f
edce
4471
3327
eb1d
0935
bd52
4138
6237
e626
31db
3670
3a74
8f84
2fb3
5771
56b5
2ef6
0ed2
3c32
42ec
1ee7
b242
514f
991f
1308
1798
70b1
2237
933d
1f6d
3b0f
74a5
ced3
f641
a6fa
69b1
71e4
3b2c
4d2f
7167
75aa
70e5
cf32
889e
31a3
4194
7d87
bb66
55e0
75e2
51cf
b526
61a7
59b2
81ae
7a36
7685
4e8b
dec2
ebee
a04d
80fd
173b
0a9e
1375
4da0
4067
070f
59e1
0b2b
4f91
0bcb
62bc
fe51
6013
15af
3d09
799d
8d5d
85cb
7d2b
9d75
f1ce
f613
515b
fc7c
314c
475b
5538
78c9
2c96
b579
a2d6
76b1
2a46
fb17
9186
38e9
259f
49f7
c046
a0ba
beae
5e6f
488a
31f9
6693
dc84
9667
8623
2541
31bf
41f7
6547
75f3
0c7a
2534
36a2
26be
2ad1
b21d
3f79
2719
6912
fec5
529d
1e37
75a5
798f
6ea5
149a
d6f0
ff8a
ba6d
c142
772f
082a
d13d
3619
563e
4851
885e
fdfe
a9bd
3d28
6995
4ad6
c1d6
6e09
2db6
e7be
6919
3efd
375f
58e6
560e
5177
6a79
ba4a
d85d
812d
4d1c
c866
7766
4bc5
140b
4a91
ced6
76e4
c9b2
0ea9
277d
6b43
1649
8d1d
3504
3887
460e
6137
70d5
9e56
44e0
e5b6
b29d
99a2
1799
76d8
a1a6
5394
b476
c99d
b61e
572b
c5e8
0d09
12da
48d9
24f0
546a
6921
72d5
6681
c72d
37fc
447c
6203
9e3d
7c8e
8932
699d
3adf
6616
231c
0c75
55d8
09e9
59ab
0b4b
6a32
3f8e
4f8a
5c8d
3cf0
c30e
28c9
497b
95ca
a012
458b
56cd
2b82
fa79
3cde
7d1f
31c4
4785
30de
ab92
5841
68ae
2cf5
81b5
0f11
fbd4
30a5
1be8
5568
e1c1
1edb
deb8
4208
c596
f0a0
5def
2e49
684a
16ef
0f61
25c8
72ce
55ec
56e3
9d62
13c7
6138
b15e
44eb
91d4
5a79
7c43
145d
1c2e
77bd
12c9
e226
54f6
a1e5
58d4
124a
0ee1
fb15
887f
63aa
5df8
6993
67c9
79ef
b41d
6e7d
5c4f
cdba
3591
2ede
d262
514c
599c
a716
3799
3407
55c7
610b
fcf3
96d3
fbbf
e992
5944
2449
67d1
3189
0ac9
352b
07d2
e6f2
5cce
0d44
3dbc
48a2
744e
432f
5cea
2259
7cce
615f
5853
67be
2429
2481
c99e
0766
1a46
1a35
2631
0f2f
753e
b582
4937
555f
f024
669b
2ab6
688a
55f9
1861
3648
6bf5
b27d
594b
f896
bd87
abca
ab29
e979
3127
bcb6
365a
1343
a022
f087
1a41
8c7a
bb36
5ea1
2344
3dc4
0f09
e70e
6949
6bcd
c621
7168
0af3
ff3f
4ddb
79c3
7d8f
4b48
709c
4c85
e92d
25df
63a9
4f2f
7b07
12a2
20f0
4c71
ce5a
5a63
1f55
0d33
85b6
5525
6588
925e
2ef2
0838
3be1
8572
2d8c
68dd
c51d
ec2a
4b9a
3e91
7da0
64dc
6839
4081
36a5
4cd9
ea62
6c82
239e
350e
6997
7613
fe61
37d2
7d7c
40bc
12ac
eb4a
5cc9
7986
404a
332f
0e62
b722
33d4
264e
4f82
5d1c
a54e
d11d
dd5a
830e
d64a
66a9
3eee
35d0
604b
1ecb
7e29
fc13
13f2
744d
24af
378f
539d
2057
0e7d
1b47
1520
4dbb
51ec
1fa3
8559
5553
498f
14e1
0995
4781
a08e
126a
5ad9
86ca
8f85
4bed
1809
1bca
22e5
68d2
d9b6
ffe9
734c
6530
f34d
40a4
cdca
2762
6707
8f0f
9476
c042
7372
b61d
ecc2
5330
7d4f
2709
62ab
762c
ab42
dae9
468d
237b
36ee
866e
85e8
e1aa
04d1
6a2e
dd1b
a736
f7f9
5106
4631
d03a
a9fe
f9bd
44a1
882e
b19d
6e9e
662b
b23a
740d
7ac9
e28e
7992
f04c
2d9f
ff17
1835
0db3
1327
b616
e452
28f9
a206
582e
8f10
0c9a
1359
a176
128d
165f
a6c2
3973
1c79
c56e
754f
90ee
4616
31f0
d3a5
2725
711f
30ec
663f
8f9a
35ea
3423
75f7
fdaa
0bff
1633
c069
5872
55e3
e736
6882
244d
7467
edbd
1edc
e26e
971a
1d74
4778
76bf
4cc2
fbfa
092b
8fb6
d5dd
fdc5
9896
7f79
f6b2
4914
886e
27d2
69cd
ad6d
8e92
513c
8f4f
5347
53b1
8fe8
14f2
4b27
608f
8e2d
1c8a
2435
7bb5
fa19
b97e
fd70
15df
b6ea
8871
3157
65ef
4c6a
99a1
6a81
7bb6
1949
f852
80de
7b69
2269
2193
6543
9ad2
3669
62c3
d7d4
e93e
5449
0b3a
ef4d
3794
762f
4c19
3023
1be5
b962
558f
0bea
fc5f
099f
07cb
d604
f31e
68a2
62d1
8084
a748
2ac2
0a86
2a5f
3f43
e917
136e
5462
970d
163b
7eda
d0f6
486a
57cf
56af
4371
5c15
6291
3f62
9b1d
995e
27bd
75c3
9175
56be
fb3e
c975
57fb
54cd
e9e1
caa6
5644
5cd3
1d94
4527
51f7
677d
b7b6
07e6
30bb
a5f6
34e0
1795
0761
1bbb
f941
675b
67ee
4188
bd67
0f62
3317
cb26
3ad3
c9d6
3845
5ce9
91c1
4055
8ab6
62db
f192
19b9
3885
99e6
e1bc
72f2
be21
7638
3cf9
3c9f
7d74
36c7
c636
a316
1cb9
cdc6
494f
193a
bf0f
e9c5
7dc4
35f3
db1d
dcb7
30e3
f34e
2aee
5411
e06e
2708
65ac
2517
61ef
8721
47ee
ffbe
2d20
c32d
41af
8c95
2652
5a97
8f23
14c3
20bf
0e65
c19a
0fc8
1a19
bf09
20d1
2e4f
3b04
6842
dd42
4bf9
4eec
b5ea
97f5
15c7
9a0e
5bd8
eed3
3d1c
7d64
fd23
46a5
b0be
26b3
5e61
2289
f291
1ac7
a081
fade
e642
9156
3c45
9742
6e76
1436
0755
7cc2
73b1
38c3
3c7b
15a0
efea
fba2
79fd
f030
b14e
3520
41ec
ecba
4825
83d3
d6ce
e02d
49d6
2ff9
955a
5a86
ff51
d0ea
4520
4ba6
0fbb
6609
7115
bf42
df1e
68ca
1cf1
f646
257b
25c1
ea3e
c5ca
1c93
1c9e
25fc
49a7
4d7c
f094
4ee2
8b7c
1cd6
b746
5861
7392
60df
9f3e
68be
170b
2dcf
2797
8dd1
0eee
2d43
1c4b
096b
85eb
65ab
28ed
0a7d
76a8
22e8
de86
91da
c52d
a5f5
1862
9d86
a0da
fc9e
7d1c
bd06
55d3
2bb1
88f0
3c35
9317
2121
0d60
438e
888f
960e
2164
0fb9
cf0e
e40e
a0b8
0742
2c85
3b08
7a35
3321
2ef1
26c2
2a25
0893
3584
6230
1ab9
2c5d
231b
6be1
2044
0fbf
355f
5fae
899f
2fd4
ee16
f1c6
4cae
e9ae
266e
ee5a
587e
7ba6
e171
dce4
2b76
d29a
5c16
43a6
4d3b
77ab
485e
bd96
31cc
5ea9
56dd
4dbc
419f
c822
0af1
7f1e
5a35
4b98
6078
4c47
8860
23d6
5397
aeb6
5f33
8d32
7855
e145
2fae
51f3
9097
4c7e
0ea2
2fcd
5fe1
8d9d
a056
2aed
8eba
a03a
0746
7bde
58b6
5ace
04c7
25d1
230f
85c3
40e7
0716
36ba
2642
59b0
c1ce
52ea
f4b8
1df7
63f5
e9cd
12a9
1e9f
ba62
3e9d
3b48
5158
3ca1
a1d4
2ae8
5e06
bdfa
55b4
7734
99e9
fb3d
3114
6629
26cb
6389
48c3
4ac1
0971
3869
6ebb
fe9a
2d48
7d17
e6e1
217b
b58a
12b9
4bdd
8bac
f5cb
68a3
28aa
0741
7edd
5a8f
821e
e63a
436e
cd15
d5fe
3c69
38f1
4ca1
f608
26f9
3ec1
55d7
b256
f9fe
35cb
4fba
461b
4681
e07e
156a
2564
4d34
0b21
9bb6
20c8
1ebf
2e65
d342
4372
b706
4167
b11e
4eb3
e8ee
b12e
9546
d531
ff0b
a0d6
9276
76c5
b972
5003
3563
4f99
7a26
1b6e
215b
14ba
49d1
7d8c
c8d5
16c5
6270
7ec9
f696
6a34
7cde
3816
3859
4d43
93d3
fc03
f46a
8981
9559
2e8c
67c2
a8d6
2163
73aa
392f
4771
b53d
408e
c0ce
f262
8a51
49d0
0842
2b84
4191
7a8c
6a82
2747
4cbe
90fc
5a16
1b6d
8fc6
3c7e
728a
6b3f
3ef2
088d
894e
35c7
34cc
4924
b981
6b86
3ee6
4841
47a9
2e2e
0931
d386
5948
2391
e43e
3346
7b37
da4e
2bba
7f2e
a00d
25e7
30ac
629b
3360
ff82
787e
2cfd
6cae
8d76
7634
1e24
5c35
8ffd
3f0c
e70d
1941
546c
34c3
2a6f
3e81
8d6a
151b
67e1
1811
62cf
575a
1a63
d036
5f8a
e4de
b012
5ce5
8ce5
12be
934a
d8ef
4ea4
7d9c
d552
5753
5713
66ff
ea86
bb42
ee74
0810
a325
4c15
43fc
edf2
20a3
71d5
d2d3
12ef
5fca
4315
891d
2365
6c62
1d84
c8f6
f1e8
09af
34c8
a5b2
0bda
1829
628b
faa2
a6f0
a6be
c5cb
0de4
55e7
27b9
7d7b
e60d
33d6
73d4
5e69
fa5a
3f37
db12
12ed
232b
fc0e
719f
35f1
6c2a
7471
1985
143e
7ebf
e957
7deb
917d
1707
252b
4114
1718
3b69
ef56
a3d2
c534
db3d
7fc2
a235
f142
7d73
129d
522a
2698
6bd3
e6fa
b149
ed51
8ba2
2707
39a9
fc44
edaa
fc8a
09d2
300c
7de7
a72e
4b75
fe52
3bd9
c6f0
7de3
54d6
85e1
caea
0ad9
49d7
7717
9370
306f
f063
e80d
a032
0bb8
7314
537e
f112
083a
1d88
877e
07cc
7236
a9cd
b306
1b6a
79ce
1560
0929
12d9
16f9
1ce0
1cd1
1f91
0f82
bb3d
5130
7d30
d96b
98ed
72d6
b5a1
33ae
a142
dd1a
7282
70cb
f9bf
8fff
4a8f
8bfb
f742
3fb2
35a3
7a2b
4b81
6ab2
1dbc
7b2b
77c9
62a0
14e6
c2fe
ae1d
0f66
1997
8346
6e49
13de
496b
2523
28e2
529a
fb6f
3789
9a93
2004
8915
c598
68a6
204b
09a6
b1b8
2735
716b
57ee
0dfb
3f99
a9ea
e0e5
549e
36d3
4210
2155
0c1a
5871
570b
7ea5
a02e
4a8d
e05d
1fd9
37cf
19b6
8e3a
362c
66aa
b2fe
881a
a44c
55eb
2d9c
621b
d212
895e
3de0
6782
78a5
04f1
2525
5607
4b21
ff1c
fc3f
8112
4839
59a3
52b5
6a63
7d9b
2721
8be2
a0ed
987a
e079
5e71
a9f2
e1ca
2e39
576d
b562
6906
69db
2b59
e921
9aba
e752
7452
c166
4f0b
4875
3841
b5b1
2cb5
4691
268a
5a99
9712
f982
3386
425c
3b68
8a35
f95e
2c45
13cb
921d
7e9a
1b91
f97a
3c42
7e7c
b3ce
95e3
969a
825d
ecde
1dab
94ee
2695
7a4a
7670
1f3f
f1bd
1747
07b6
7bd9
7859
3a04
70d2
6937
47f2
206b
157c
08a9
2567
2077
1ef3
47b7
613f
d9e2
171b
ce8a
fece
4433
b52d
e04a
335e
141e
4b6b
d149
15b4
21f4
39ec
cb52
3e6d
d9c2
4382
7f21
ddc6
5e0f
1f1b
515f
5361
d3b2
2a0e
39e1
36a1
a33e
a582
3eb5
0914
807d
0e6e
74c9
f119
1256
0743
4adf
362a
9959
6c79
315a
359c
1425
9065
8f1f
df36
e7fa
3699
40dc
1a9e
ff56
d9d3
61bf
52e9
8014
9d36
4d20
2492
dd72
123e
4615
ab1e
9ed3
7c74
51ab
78e5
6604
8a72
3d8c
e9ea
7a5a
3e9b
2493
21bf
8fc9
9513
ef26
ff29
c9d3
789e
7538
fb2d
0dd0
3812
5365
1727
338e
0aec
6218
439e
6786
0839
e5e6
c4b2
603b
e951
ddbd
c41f
4b1c
fa7d
df16
541a
5445
2d87
8055
4b17
3a78
1eef
a66f
3338
d96a
5d0f
3328
7235
6537
38a1
47ef
b09b
b2b2
79e3
13ca
65bc
ccc1
fe09
17b9
a966
0d23
5df7
b922
a0d4
4aab
3af7
8bf5
7b99
67ff
4b15
5abd
c8ba
7cfa
855e
40f8
4aec
421f
3094
fe2a
1211
8e6e
135a
4ddc
09c1
99d1
8b63
db70
20b3
0ef9
d2eb
68c6
d1c2
36cc
7e2d
8bdd
f946
d15a
249a
3dbb
2785
210e
39c4
1885
30f7
2b94
ec42
e5fe
a4f1
7a1f
7a9d
7857
a714
3b27
38fd
1632
2e55
6aa9
7c7c
af45
afb8
607c
8191
f59d
1807
300b
3170
650d
30db
d1b2
1ed7
bfca
b4d6
7293
158f
1667
1eda
f647
66ea
e38d
569e
63ef
c9aa
1641
16f1
1f11
7f6d
81cf
80e2
494b
34f7
579c
5636
8e5d
fb5a
1ced
17ae
3691
3a0f
c522
9882
0ed4
7ce6
1c6a
0d6f
4763
53c3
981e
7b13
1957
3cce
5359
a504
76b3
2b14
68d4
917e
4ae6
79cf
3fff
c367
5fb5
5923
1426
3ef6
f7da
5a21
d2cd
247e
8494
7917
446f
4da4
7ece
884d
315c
93ed
39a4
2f59
4fda
4609
c0ba
c0d4
303c
7d4c
38a9
4b07
7693
4073
80b2
965e
4f33
c1d2
357b
e8ae
0e37
3faa
930d
ce9e
2d94
682e
4ef3
2eb6
f9da
b99e
75f0
8726
857d
73da
b0d4
200c
533b
87e5
d96d
18c4
6260
2f5e
084f
fd6e
4891
7a81
12aa
143d
e22e
27da
158b
7a60
523e
3a1b
49bb
1eaf
2471
65c3
7eae
07ca
b95e
1d4c
74f2
241d
5c2a
77b8
874a
b067
6baa
3861
b51e
d69d
e542
ce5e
3ee2
7d1b
2436
f1a5
8da6
1bf7
4fde
fc35
6cce
0ddb
e012
1bed
e579
1dfc
3d38
3b07
57ab
a5ab
d548
6e46
9b7d
30cb
8b8f
49a0
8d7a
49c4
5138
a53a
ce85
95fb
2047
2df8
db21
b05e
2f34
bbbd
6c59
0c56
125a
1a89
6b29
af2d
2296
9722
e04d
17f1
f636
9319
71e7
e5b1
f1d4
5abb
8226
4144
96d2
baa6
1fca
4973
b442
a529
0b6d
8e5a
b662
f57a
4cbb
1fec
fb09
60e7
6188
e15a
47ea
3b4b
b37a
34fb
5f65
1285
f664
d39a
d186
a322
1f9d
f9e2
eb49
fa5d
242e
1f2b
4fc9
577b
790d
d7e6
a07d
6a70
7b30
2f53
8146
2120
07a6
f513
212e
9339
95b2
1274
694f
04e1
e9bb
2fa9
803d
7a51
7a3a
fe2d
5f1c
af3e
2ff2
95bf
3a93
bbe5
98cf
0c6b
42db
5a07
78f5
b172
4a67
6a41
26b5
6c31
a95e
584d
356e
4dc4
6927
8d93
72e7
fe7d
2a9d
8f7b
539b
4cee
38a8
f7f1
5495
afbd
2888
1ec8
3758
14ea
e042
20e1
5264
7e9e
da3e
f876
186d
4ebb
49e0
bd82
6b2f
b9c6
fe12
25dd
4d0f
a5a1
075e
ea6a
3948
fee6
899a
159b
f5ca
13e9
46e5
0d3c
963a
736b
b73a
fbe6
f122
90c5
3048
5cbf
2ac6
a0f1
0adb
375b
459f
36dd
27f2
0f21
2f8b
cdcc
4d94
5d87
4659
eb32
1d3f
0e11
389a
0be8
c0f6
722a
d04d
246d
3a4c
f637
b231
3829
2fb5
c30d
28a3
0ade
3bbe
5f36
67c6
ed6d
4f09
56ee
41c3
e745
a05a
0e75
2cc2
c355
bd1d
f592
f0ab
13bd
2170
6307
1791
761b
1b72
787c
6108
c476
20be
57c6
1a33
2b92
25ef
24b2
b336
0a26
e0b1
0e61
9ef6
21fe
5f5e
79fb
58de
b06a
0dbb
8839
f96a
476b
7a34
0eb1
2641
5cd7
8843
e165
f3b2
b303
4a70
2a93
5ef1
2f3b
2f7d
f916
bd7a
848e
68b6
511b
6523
7f96
5a2d
8817
fd5a
60ab
cb42
7b5e
db0e
7cb9
cb3d
fb12
fb8e
3da0
1e5f
e792
e23a
49e3
5c56
c4a2
0e36
59a7
7cc1
bbc3
d996
75ff
e1ae
2307
17e5
1279
f31b
c450
41e4
9a9f
0711
1e4b
c5d3
0f22
3582
ed3a
198e
1669
c07c
c021
5225
153b
6e57
9212
530c
525e
f69a
ba7e
baee
23ef
2c61
1f6a
46fe
0f29
82e9
09f9
4482
6813
1282
7e2b
b655
04eb
5865
2ace
a5ed
63d4
149e
5fd2
23de
5c03
a0ce
45af
18aa
28a5
5812
61e3
81e1
8d75
07c5
c2a2
5af7
2f82
c5e2
16b5
4bd2
1a93
9d29
19d7
7c2f
f226
7ecd
5379
4699
e552
0bf6
2e79
1ba4
e54d
6953
5a8e
8e22
1f41
b945
13c9
489d
540d
9536
7429
46e1
4ba5
e42a
46c1
fe2e
41f8
cd2a
cc22
dcfb
feb6
d247
8861
b361
7bcb
3cbf
9f0d
33c9
2a32
da86
381e
3168
6111
9277
1666
f0dc
9dfe
c67a
1f53
23e5
ee6a
54b8
09e2
1f03
7113
8da9
33a6
ca76
5247
aef6
ba6a
3b82
638e
65eb
52dd
625f
5aaa
fada
5dbc
1fae
b55d
eb72
2720
15ac
759b
9592
a58d
f1c5
4c76
b077
34d7
5517
1ca9
ff21
0fcf
8b9d
5a51
5c29
2d28
35a7
95a5
4861
766c
8b8d
f064
7298
3314
2088
fe96
53b9
59c8
cd3d
18b1
4bc9
52a9
fab9
495b
8755
e01d
1c66
a36d
3f23
e908
5afc
d02a
fc20
817f
cb81
3b17
881e
1577
1573
1cfa
4b30
abc6
b572
7231
0ae2
1e60
fed6
3bf9
13d4
3594
8f61
8367
deb5
652b
a17c
62fb
2e7e
7e98
26f1
2aa7
2c29
fd62
5fa1
d9ae
6b15
4f5a
a932
6714
49c7
e5a6
ad4d
0a72
0a22
0c70
41c4
753f
65e0
1e8b
f6f2
a91e
39b4
436b
8de5
69a3
71f5
834d
7394
e936
78ba
2197
b175
7a98
5675
ee72
6c7d
a91a
0f27
2df4
956d
1419
8bf3
89ca
3c55
c996
cdea
743d
8f9d
d73d
1882
4658
f911
47df
596c
7be5
1c0e
9ac6
95b8
7d44
1506
56b6
26b9
ccda
44e1
1762
657f
532f
c9b5
a043
2209
1842
274b
b155
3d68
c423
e999
7271
5af0
5a8b
82cd
3b53
882d
c1a5
f1b1
5ef9
2c41
9798
f769
812e
5ad6
e54e
19b3
2d24
d98f
ceca
8ece
f95a
4459
0cba
1ea8
c02a
6678
feb9
d0fe
20a1
1fe7
8071
205b
4ebf
3df0
4173
469e
8056
e398
1681
3a4b
22b8
b2f2
4377
25f3
4ee7
fd11
47b3
df67
18a9
14f6
3a38
3e1e
4869
3fb3
7779
30d7
44ed
445e
81a2
0753
0ede
8c19
7ac5
34df
840e
9035
5aca
383e
5ca9
52b9
2482
9dc6
43c9
bd35
3a5c
5a38
ffc6
2a15
9089
b2ca
5f9e
3b03
77bf
1f71
35bf
5a69
d1e8
09a2
7bba
dfd3
c8ee
8d0e
c32f
9dee
21f7
5567
9e36
5798
8a96
08e3
85c6
34ec
9784
af0e
3070
ab31
5e33
5f47
5fd4
df46
a186
e1d3
4457
4774
61c4
fb4d
4895
4df8
0a95
5735
2649
d1ca
69a6
3af4
cec2
53f9
313b
3420
21c4
9d72
4b2b
fad4
537a
7160
71c3
dca3
70eb
0e26
61a4
48a3
1f21
67b8
760b
e9a2
0eb7
8624
4f1b
f556
7aea
4a78
6add
e2a5
d1d6
ddf2
3003
42d3
73fd
42cc
fb1b
31d7
8069
1da4
ff91
7a30
b119
f623
8d9e
13e8
91ed
212b
a9ee
f53d
6213
2b6e
7748
c61d
d14e
77a2
8f27
d7e2
8b96
2bff
7b59
3ec9
d221
0841
3ac7
3de4
5493
57c7
7d5b
b5e5
6e2a
18b2
2b15
1fde
e6f6
0964
317b
6eba
7191
1b96
b33d
075a
469b
56fa
f569
4293
6c6c
b121
51c3
d746
a59b
b519
337d
625c
4c7b
2d5c
d87f
c15a
99c6
a58a
be61
1a7b
24b5
1c22
61b7
afc3
8081
4214
6023
2a98
47d9
b2d4
1b3f
4fd5
6515
ed39
4a58
a656
a1a1
75d5
cad6
ca3e
73e5
3fd9
9937
192e
8c2e
3614
3e7f
c63e
bff6
1673
96a9
5f76
375c
34ab
42d7
4df7
e0e1
f674
6a93
fe7a
1bf1
53de
8d4e
2c09
5459
456c
4fa5
febe
7914
3c77
44a3
1f27
379f
33b8
e5c6
b59a
4836
38e7
417c
9636
6a15
fa92
c612
3836
cf3d
9589
f806
0713
3a3b
44ca
255f
27c9
47aa
7ad5
75df
f511
56e6
557b
1b23
4178
70f8
7604
0e99
3f81
fe5e
1939
2ca2
4fb0
58f1
7b14
1f10
b959
3dd3
b7be
b44e
44bd
7291
896a
855a
a1d5
bf2e
ecc5
5a25
7b24
0928
4cfc
755b
c199
c6e2
9162
b9a1
28ea
8676
2fec
fc27
076a
4bb1
3a3f
26c5
7fc1
5231
26d9
5eef
0da8
90e7
e221
6981
b3e9
24cd
3564
5772
5ea3
e56d
57d6
8f3f
a5e2
865e
89f2
fd32
4984
6763
1993
a1fd
40bf
0b33
f6cd
67ca
4123
b176
c9a4
8910
a9ca
a5e9
a099
7ec5
d17e
4b2c
d9fa
f007
7def
9cb8
1781
22d5
4ee4
1ab0
991a
5208
6ad5
6733
6bae
7815
f5cd
07da
4ec3
4cb9
37af
6244
3ab0
ff85
d28a
c420
f0f7
4ee3
abfa
2bb5
fe4a
c57a
38c1
311b
4391
5308
9fba
c134
f709
7b1c
6b5e
6382
b142
250d
7dbf
9d99
b9d3
fcec
5d8c
1215
07d4
ea75
7de4
4863
3174
478d
36ab
ab12
bb7a
f971
936e
633b
7834
21b7
5c26
ddc5
36b6
2b9a
2b3b
6792
a751
cd56
59af
18b9
28e5
b352
63e5
24b8
942a
4473
55af
d70d
5953
999b
2713
0c7f
38b6
4119
881f
f51e
123f
1678
7268
4cdd
fae9
63d0
5be4
b12a
0925
8f65
40d1
7a39
1815
66cb
d355
25b4
c21a
b0de
b0e6
6b48
d242
63d2
27aa
f0a8
774b
78a1
5cf5
89c5
1469
7743
bd49
157b
4ea3
65a4
e11d
9a52
765f
ce99
ba71
99d4
b51b
c249
0ee9
7791
4d18
48b1
48a1
f9c3
36fe
767b
2c8f
f5c5
d71a
24e5
3ceb
9725
23f5
69c5
8d3d
ca72
568e
6ad2
ecd1
40ab
f42a
1e43
8a66
094c
992d
ccc6
733b
6af1
7b18
fab8
6153
6b5d
1b31
e545
48e5
66e3
7ba2
3ff6
afae
d9a6
e115
0aa8
8f89
81de
dd7a
382f
79a3
6220
8858
687e
3891
7a31
8bc1
fc53
6811
e5fd
3344
9b6e
b8b7
26bd
de7d
73a2
d722
1c65
78c5
853f
d982
4033
7abd
c416
f47a
0cc1
a016
de0e
6243
42c3
7c38
793f
483d
404f
33aa
14c7
2e99
789f
a308
a521
161e
e971
4859
377f
04e7
459c
af2e
9e98
542d
b7fa
8715
f59c
dc8f
d67d
7fc9
5de4
e8aa
9556
ebfe
24fa
8066
389d
35f8
5514
52c7
8bd1
5af1
49cb
0c5a
d129
61af
dd09
42b7
3058
0ecb
3e19
78aa
c7fa
35ab
7da8
fa03
80ea
3324
0a29
eb35
1d4f
f3fe
17ca
62e7
f3ba
3608
1659
f2b2
2626
2d58
0844
a97d
12d1
18f7
26ff
7bc5
560f
6207
42b0
a62d
19b7
460b
a9a5
f30d
c05a
7f7f
5669
8a9e
619f
a1ce
602f
e0bd
fe22
3ba2
5d07
973d
fa6a
6cca
7557
8271
2cd4
74e2
230c
3473
e51d
251f
5544
a119
8329
7ade
3a57
1e78
5677
5646
de7a
3757
e2d6
7f49
2ef9
debe
ed5b
5e0e
33ee
7281
42d0
0ec9
26c3
b27e
bffa
04f7
205f
e7d3
654f
71cc
33cb
085a
5327
9367
5fc5
803f
5eed
c97a
3b0c
9a98
c28f
1e8c
305b
3f17
da96
fc60
46d9
1ad9
7efa
e0de
f9f2
6768
3ea6
8072
16c3
663e
23da
e009
219c
4513
14fb
4bf4
213e
785b
63b8
ddea
2536
2439
5476
dd22
7237
5f98
ddfa
78b6
e1ea
54c9
20df
527b
2c4d
39db
bf56
53a3
2f91
d2c2
99f5
dbfe
0a85
1563
5127
0cb1
3df8
9b52
73d5
4ab5
7241
61ab
3d0c
dc9c
2e51
1a69
d979
cd66
13c8
76b0
261e
3e4f
71a0
1dc7
3527
598f
91c2
a9f7
f539
1231
1615
621f
bf72
78be
38c6
e43a
67fe
5ea2
8025
f6f9
2c19
fddf
5c93
8b85
c09e
62e4
224e
886a
88b1
ecb9
3fb6
1898
6637
2416
4337
6327
a7fa
1ccd
41c8
7771
832e
3ee9
1b4b
341b
1fe6
655f
8525
3057
86a6
52c1
b227
c92d
51af
7a8a
56fe
63c9
75c8
c1d4
28d1
20fc
7b66
1f4c
618c
78f9
a00e
b1dd
f2de
d6c8
56c5
d286
934d
fd20
5ff1
a57c
2173
4528
8fbd
0a3e
42f4
2c5b
6323
712f
80b1
ca6a
0aa6
a92d
db39
f0bb
3b66
93fa
44e7
446b
e8c3
3484
0c2a
5e3a
c28e
65a0
3f86
3aab
4953
a313
7aeb
96a6
68a1
0a8d
5a59
2a65
4f34
6987
54b6
7899
f0df
ff5e
1b4f
9e42
2c2d
5ffb
412b
63cd
be0d
7610
0f55
9d9e
8975
e56e
dd89
5257
3a8f
ea6e
da3a
de8a
2446
53e5
8122
3994
9f95
9a7a
575e
3bc1
4f17
e576
a72a
9794
9e45
1f8e
5f59
ecd6
771f
3503
65cc
7793
b026
d0e2
0979
bf4d
56e9
91a6
95aa
1e04
98fa
a155
43cd
2bb8
3e15
5f5f
0db4
fc67
08b8
7fbd
f546
0f18
8a16
087e
572f
d3f7
1296
d0d4
ee96
6d10
0d17
d54e
4cc9
d11e
4b9e
cf4d
3977
5c81
7dfb
ccb2
40f1
6073
37ce
72de
75cc
a78a
9b06
3ed3
4560
0ca9
482a
7776
ff46
2265
d37e
a086
9a8a
fa25
e1be
4170
7607
1b1c
35eb
5eab
5232
52cd
0e59
5a95
22f1
47d6
d496
1612
7624
0e57
0e20
2aba
8998
6cdd
67d6
1d07
24f5
5435
5fd1
85a5
dc9b
208f
1ad1
6b1a
1386
d1c6
58b7
cdb2
0c67
3cfb
492c
b9d5
561b
3b92
233f
1ce8
39eb
65a7
481e
a1e6
519f
7c60
95af
18f2
c16e
39fc
5f99
717b
8d35
3615
7bd2
68ba
804a
5461
5e37
99ef
46a3
ee5d
3ccf
787f
88c5
174f
0b81
98be
72a1
eefd
431b
55d0
6364
9fa6
122a
624c
657b
1abf
8f13
4c65
7ad2
2639
fce3
8d5e
35df
3f65
71f7
36f9
623b
26aa
ee45
54b1
71ec
f421
4b59
a1fa
5441
442a
3538
8b7b
6647
455b
403b
fb29
5ce7
c428
1e1b
6c17
2386
b0aa
bb22
443e
ef23
2392
a3da
3193
6ef4
e3c2
8fd4
e13a
dd9e
e961
38c4
ea52
3cbc
3134
8042
e747
ef45
881c
65b0
130b
6ac5
6891
cd7d
0b1b
907d
7f62
beea
3f6e
d974
49b4
1d03
a908
9a66
693b
78da
27e9
6197
9b1e
2748
d598
20a7
5369
a1ed
5f2c
16d6
2a73
82fe
5c89
fc6b
a516
cc85
eeb8
a596
7ccd
796c
f725
2a08
20e4
8f53
45bc
eb9b
1bde
8dcd
28a7
5212
c97e
7430
5409
618f
0708
21b3
cd88
52fb
7e8f
7eb1
f6f1
7713
1c7a
a57e
9a55
2ec3
91ee
6acd
f5bf
5fec
6cc5
c1f1
1713
c036
a816
e4d3
45b7
8da5
e3d6
04ff
fff5
8f37
6833
25db
256f
fe1e
862e
1f13
1c89
0d2b
4bce
5aec
c946
31df
63c2
e14a
25c2
0b0b
e12e
3a03
6885
e92e
8a2a
25b3
2cb4
fd93
ecd3
1ddc
2451
7f65
7a09
36b5
76c4
4cde
9d5a
193f
615c
5842
3881
5578
42fc
bae9
b9ba
91a5
2fea
e071
8b3c
7da3
d559
6204
2f86
48f6
51e7
48b9
7737
7fde
0e7a
0879
f356
257f
858a
d2da
f6d1
139c
89f5
7ab1
2ec4
b0e8
3f3b
2d8f
3418
47c7
5f0b
9909
a542
c0ee
1ef7
6b3e
c932
316f
7968
e299
9a82
16d7
4a97
1914
1511
9569
61a8
3d0f
2e42
867a
f932
b1fa
1607
790e
1737
d736
494c
b145
0815
1f95
24fd
9b22
903e
ae6e
801f
51d8
71d6
3197
47e2
3e59
9e33
6068
f16c
777e
830d
66fd
2c9e
4330
2c0e
33a2
c039
fed5
393b
dd5e
fb21
15f8
f9e6
62a7
799b
e5d8
4ffb
6925
e1d4
6625
5fda
f629
a942
07fc
345b
5a58
388d
3b7b
99fb
e8f6
7dff
5695
1cae
1c29
fdea
4fa9
b9c5
65ff
1ae5
66a5
7b7f
3edd
88a1
54a3
24d1
859d
17f6
e370
14fa
90dd
a9b6
330f
bd3f
a599
4668
915e
f162
f599
4bb2
f644
3e75
8d06
f86a
9562
18f8
4bff
5233
1f9a
687d
300f
fd69
09ab
40a8
1635
4c32
ea5e
ea1d
fd1e
95de
78e7
995d
cd32
244a
1365
2233
a671
78f2
0d9b
0cd4
741e
21af
801a
099a
c711
eace
b5d4
c13d
e5a9
90ed
9796
4327
07aa
04c5
7e09
9374
a0d9
7219
be5e
1af1
f19a
61a3
7a08
8c7e
2ddb
c97d
78ff
772c
31f7
a11e
8b93
2b1c
9efa
749b
e41e
40a3
383d
41c7
7444
20c7
7364
ff76
715e
24a6
46f1
1a6b
4f88
f92d
45c3
8d91
92d4
a5a6
12e2
04d7
87fc
2472
8e35
52b3
5658
9e5e
c66a
9736
86e9
1e3c
4303
77d1
7781
42b3
1a1a
6cda
ddd3
34eb
9721
302b
1b5a
7782
95e6
3e6a
d936
8015
413f
176d
3e5b
4f8d
5337
1fe2
5685
821d
1b9e
4f70
3978
8842
844a
8dc6
44b9
7eb8
ae26
3b65
1b65
5f35
8898
7249
6520
5718
e998
59e0
2003
f5bb
37cd
4f0c
5ca1
e51e
69d1
3e17
71fb
1cd5
c563
6e53
57e0
c66d
7192
412c
7127
781f
adb8
42cf
69f7
5ec7
1bdd
5c71
5469
516c
232f
15b7
1991
fd94
366b
4653
30c3
1a43
26b1
1b48
ea22
fb5e
2147
61e0
0ad1
691c
e616
8d5b
68d6
6c2e
db15
cfdf
4f58
54ae
d10d
724f
52bd
5637
b5c6
4920
3c4a
2b2f
d9bd
3444
adea
7ada
1645
46fd
0efe
2de3
c562
1662
6288
1a38
82c6
c186
a74a
9046
eee6
0869
1d57
3dac
7df0
2191
7ae2
0e9d
dc8c
76cc
42f0
8672
3e99
55df
3f27
349c
74cd
74c5
1ab4
d0ee
5e46
d047
3924
7df7
1856
de59
1977
8897
8542
fe5d
3eb1
8a7d
6c92
77c6
77d6
2e07
452f
5fd5
d7e8
521c
1a8e
5ae3
fafd
3c82
7848
bc2d
34bc
633f
f6e1
3d2c
49a8
2f4b
09cf
3568
39e4
d60e
a052
6e6c
66db
deea
2c15
41ab
a56a
e027
2232
f32d
24d2
796b
89b2
0d37
165b
168f
be96
e082
66f4
7b04
9d12
4375
41a7
79bf
899d
184d
0977
99bd
d53e
4b3f
e2fe
23a1
6c64
ea0d
4bda
59b5
0fe9
1a0c
243f
9216
56ff
ead4
b12d
e86b
6caa
adbd
0e71
ea32
7720
45e7
78fd
365c
7382
60c7
88b6
805c
28c3
7343
2ed7
1a82
5a91
3fcb
43de
15d0
773f
fcaa
9baa
5635
51c8
7b34
7bc8
8a1a
ecd4
a181
2134
7229
4c9b
0c3d
e9bc
b049
31bc
9f4d
bdf2
b14a
58e5
1892
6a45
78c2
b1ee
e991
1ad5
a951
2486
c586
0bce
2e6e
f6d2
c998
14dd
2add
6b59
22cd
a5e8
3303
f126
19a0
5c99
f31a
d192
0ffd
4573
f7b8
8916
53d9
f36e
f169
60a4
3ced
55f7
8d99
d539
7b4c
912d
b5ba
63b1
a062
43c5
7987
adf2
5288
f87a
7530
bd6a
39f7
c137
3bf1
7d5c
8d66
b98a
fd72
f9c1
cbe6
4678
5d4c
554b
680e
95d4
8b57
f979
f5fe
086a
998d
5917
252f
5720
66b5
e685
fd46
7bee
edb2
0a99
66d9
6c49
933a
f7ea
5efe
a642
eed2
248e
0ce9
604c
735d
525f
7e14
fa29
ea41
8d14
5cfd
4633
1a30
6a8d
bb20
08ba
c5a5
7ac7
cf11
224f
a1c2
2595
476f
8403
7344
ab7e
f6da
2df0
4f48
eebe
9329
e0ac
f7fe
0e23
5a47
3e61
4917
08c2
672f
bd62
4b5e
ae2e
2635
534b
313c
edd2
59b3
1b28
c9e9
c0dd
ba55
7c58
9c62
3cfd
57ca
2f1f
19db
e336
0891
658b
63c5
760c
c0be
91d3
45d0
d466
7aef
125b
e26b
6b9d
fb35
495c
91d6
88b9
9fc1
ffc5
f1b8
129f
0744
1a9a
fffc
889a
79f7
837d
17ed
f6fa
22b1
d94a
5c42
81f9
b1de
2017
1865
8746
2411
75eb
7cee
42a3
2a41
5ec9
9756
17a9
d23e
596b
3acf
37e5
f1cc
cad4
2a42
d2b6
63d9
b752
304f
8065
877d
9591
ca46
19e3
451c
72f5
d97d
1c11
e72a
e53d
7f92
55b3
1d9c
4567
a079
3c46
a15e
b18f
a59f
b522
ef6a
2abb
1df0
b3d3
712b
4408
9561
cafe
6bb5
279a
15f7
7af9
18c2
cd5e
bd86
e312
2211
7c86
c91a
96ea
58a2
27bf
3fbd
07bb
1ada
269a
2686
457c
e5ae
7867
7295
72b2
1b75
b93b
814c
e40d
0a6a
f342
09bf
411f
9a5d
3470
2da8
72cb
5ae6
478f
e73d
2661
c5e1
fa2e
236b
0fee
37b9
7a44
869a
c14d
a575
5109
e558
562f
6c77
53cb
a061
77b9
b394
18c1
0769
8f7c
a1d3
f097
2037
ce4a
66f3
b2b6
4133
4dd0
ed2e
e5f1
16cf
46d8
1a8f
6a3f
7bc7
04bd
7327
a8a2
3e3e
d1fd
d6d6
2e10
9d4e
319c
3cc3
c0c6
7f33
c9de
a349
a1c9
c739
07b8
0ebf
7b57
2aa1
3b33
3f10
655c
cbfe
536a
51b4
8dd5
d126
31af
16ed
74b6
e0aa
1743
9606
6a95
4fc1
ad98
c063
2ce9
2467
bdc6
9021
d6ea
4fee
851d
a70d
4bc2
767c
3a10
1a8a
0f38
2251
7c4b
71e0
4120
2691
1aa1
8e94
8a4e
6730
c417
78b1
457f
580e
59f7
cb3b
baf6
9159
9f2a
92ce
22c7
61fb
589e
0f65
52d3
99c5
cb51
e932
4dfc
a27a
6ae7
8845
6127
47a1
9599
609b
0db7
2d78
7d0e
73a6
3c25
4118
fd88
9be6
6278
2bdd
f11a
ed9e
e01e
439d
63d5
e9a9
627f
e0ed
27d5
a17d
c119
dbd6
18a1
5211
77f5
21bb
b1d1
9b96
8f1b
3cd1
856d
71e3
1df8
0747
6bda
cdd6
9dcd
6822
ffa9
523f
6a31
e2bf
c682
27d6
d1fe
459b
87f5
3d9c
abd3
7ef5
6ae9
3e6b
8af2
4ff2
3ce5
9b3a
2a95
fa75
68da
bd91
4adb
4ab7
f65e
5143
6820
15ef
7d0d
9ae9
c006
5278
b2b9
9f1e
43f6
b97d
44f6
a9b8
651b
7cb8
edc5
83e9
4e97
0ef5
c71d
88a6
c8b4
31b3
a80e
3e95
2c69
75a7
7ab9
fb49
3c89
e4a6
156b
67aa
750e
8586
9309
9d79
4cda
6a9e
59cc
1cbe
6304
8582
9521
9e1e
c93d
b578
25cc
9c26
a56d
fda2
07d9
725f
4b71
20cb
73ca
e5f6
36e7
a55a
90cd
be62
fb55
61d0
bc46
9482
8512
e46a
5509
e176
da56
8f04
6317
a351
1337
9929
40ef
d279
777a
1ba1
7157
814b
156c
490e
361f
4670
0e8a
e252
85da
382e
f165
f989
80ec
17d7
52ed
d9d6
d3a6
44c3
59c4
8516
9f0e
4ef7
3eb9
2286
679a
25f7
ad62
3038
ce1d
e9d6
8f7d
2c1a
9932
1f28
4044
7e41
85ce
3c67
1622
7f56
1af9
2a47
257c
72ea
2c4a
979e
2de4
f4be
7cf2
dc94
708f
3e5e
275d
fba9
9122
6e6b
17e6
4574
4425
42c7
56b3
a141
1b25
09a3
0fed
5e39
28a1
4a77
6024
a94d
a347
171c
7e52
eb12
5934
2330
b1be
ec06
406b
34bb
4365
9df5
739e
6214
a25d
7baa
ad2e
3677
693c
ea7a
199b
681e
c9b1
31ef
8f95
7524
89aa
7c20
ef35
198f
1228
0bee
c71a
b56e
479d
5cc5
d17d
a0ee
a63e
e672
c8be
7768
8739
3028
5e47
414b
63dd
d06d
0d2c
3695
1766
332b
db2d
2544
6803
e565
d31e
58cd
779d
9982
bb0e
4aac
5967
e969
6118
aea2
6233
0ebd
d8be
6cd2
c9f6
0fb0
a775
e491
ed93
ff24
33c7
9a6b
423c
30e0
d49a
c736
54de
e571
6af9
2717
733f
58ae
48f8
c5d4
cf22
3ee1
3f4c
dd5d
4960
43cc
5a09
8fea
ca52
9071
366f
7bf7
27d4
8731
9421
2b6c
67e3
f846
17ec
14d4
4ad7
ab47
5e8a
8afa
b5b8
e3fd
664b
2213
972d
85f2
ecf6
7911
2538
5708
fda1
17b2
8b4b
d0c6
5e42
da32
7744
dde5
adb6
4130
6c3e
235a
4013
dccb
4687
e7ba
fe1d
1b17
3770
2d3c
340b
49a3
7d94
4f87
15ec
1587
f0b0
53a9
551b
28d3
da1d
d3da
8939
f5e7
4a5b
3626
6228
f256
2a91
893a
b936
4ce1
d1aa
0cf2
b73d
2ed1
2a89
bc16
a3ba
8c0d
dd3d
175a
189d
20d9
7385
ab52
d85a
62f7
86d3
bbf2
7c5c
7c34
91fa
541e
c969
19e4
211b
3fe1
7fa6
770f
1281
b886
734b
ab45
8236
5e10
2246
9ed4
a6ca
27cb
a12d
d041
5ac3
913d
7f3c
4760
41b3
4b2f
62f0
697b
6c5d
f33d
08e2
2ba5
8a0e
12eb
18ed
4c95
d2b9
cd52
0cc5
3e39
20bb
2153
fd1a
63bf
9c21
eea6
6157
357c
c06d
5728
4538
5734
773b
9b23
90c6
f6c2
de23
fd5e
ad8d
8ede
c94e
7843
cd7a
fce6
4467
fac2
7e79
5a6e
eb2d
544b
60a0
2f2b
e5d5
8ad5
c91d
f132
3f2b
4ab3
1b20
795b
63fb
6831
34f8
0e12
b25d
546b
2114
3fbe
5187
8361
ea3f
09de
444f
8dc1
d0a9
99aa
cb56
f0bc
0f76
827a
17d5
c14e
794b
7847
b06d
e572
853d
8909
36fb
f24a
8c81
31e1
0825
2e13
fee1
8db9
1219
1271
4217
5e9d
23eb
512c
35a4
58c9
73dd
3ecf
fafa
1bd5
2685
dada
770b
739d
1e64
30f0
8b73
fb47
791b
9711
ed46
d0ae
47bf
4677
8ad4
31ec
edc1
8803
6e85
cb4d
16ab
fce0
fde4
c993
33dc
36b0
423b
307b
fa4a
25ec
608b
b081
8e6a
4dff
75fc
13b2
8965
6e14
c032
b0c2
234c
557c
6863
26fd
ef86
bde3
2527
4359
42f3
eb1e
2ad5
1f81
519b
3507
751b
78d1
d735
6c52
d14a
a1c1
f9f1
90de
cf5e
f6d6
d7fe
37c5
be2e
0a18
f93a
5c19
3c14
a7c2
20a8
4c2e
46dc
d206
916e
a11a
ed8e
341c
1b2b
c322
1f0c
89e4
ff64
bc4a
b32e
89ae
6e56
1431
b035
c64a
7fd6
6a17
c1ca
0957
8129
f716
69bf
1d09
b43d
e923
40db
6ef8
6a98
8b48
3e2b
91e9
04fd
28bb
9082
76f8
2bf9
2f8e
b275
8ed6
bbfd
715b
25fb
3ffa
c12f
1d38
8899
8c1d
a7d2
45c4
6194
9531
dd08
fea1
f17e
1616
1e9c
cf55
fe9d
f7c6
e8bb
159c
543e
7ea9
fd99
ffa6
4c73
a255
6b30
a665
0da0
c37a
23b9
a9e9
c2d6
fb5d
7db0
7ee0
c96e
16e1
a07e
e755
e0da
66be
3e8a
914d
0ce2
26e1
deaf
403f
0a63
9706
c4d3
6928
9532
40c8
a286
0e28
7147
1d48
b1d2
c73a
0dbc
b295
2194
4308
898f
7e45
53ac
d00d
9ff6
2524
59f3
85a9
dcdc
fabe
4f4c
af4d
5eeb
a1f9
9331
5267
46b3
0fd4
b031
5188
2733
5294
809d
3393
c02d
4157
44bb
6106
7faa
c9af
ad9f
5285
1b1b
facd
273f
3fa5
a20d
a0b0
59d3
b9c2
73a1
04f3
b9f5
d9ef
f41d
1265
96c2
627b
8e16
c8cf
2465
17a2
68e1
7d60
8285
5f53
473c
edf9
e486
33ba
0bd0
075d
521a
6a68
2bd6
931a
0826
1c24
273b
a47e
1227
f945
2049
4bf1
48ff
5c31
cdb6
74c1
4622
8a2d
620c
75a9
87b6
d64e
73f2
dad3
d166
348c
8917
a93d
12f1
ca8a
e05e
1b81
2f44
6143
3c41
3855
48ae
ae3a
f48a
4eeb
3ec7
df12
2442
4ce2
4767
a7ef
0a67
7b3c
3918
b92d
66ef
bdc9
e5a5
3a1c
0e5a
e22f
1fb1
81d4
0b18
90b9
76ae
3bcd
8ba5
37a7
5cc1
54e9
f020
4bbd
3a5f
5aed
2ab7
794c
58da
c7ce
7412
7f2a
8bab
0df8
253f
f70f
ed57
433f
2693
e5a2
f1c1
0aaa
da31
756f
9995
5f3f
37f4
8885
26d5
4f3f
2d0f
6128
2b0c
6548
14ca
fc86
c5fe
469f
90f9
73e7
691e
82ea
223c
e135
c742
9267
fe19
fb7d
0d30
a71a
1db4
2c22
c5cd
f9ec
f247
deb1
e1a2
5762
4b20
60eb
8b7f
37cb
8145
8095
1671
1a68
6cb1
2e3b
456b
832b
20fb
66cf
1bbd
595f
260b
37c7
47a8
d115
ef06
af36
1ea4
4497
7527
bee2
0f71
226e
ef2d
41a3
529b
e298
ff23
ad61
166f
b5bd
68bd
a015
929e
9262
20f3
70c4
46a9
cf19
bbb6
6398
0b5e
a292
51d3
932a
24e8
9e9a
2f30
5fc1
20ec
2e85
0e24
ff75
fbc5
4fc3
411b
56c4
6713
23ed
5313
e169
4320
3ba6
674b
2177
125e
4aa0
30b0
0fd1
b055
b086
a62a
bd6e
dd6d
95b6
689d
6703
1244
5a31
5a68
eb70
3b8a
2357
5df0
27f1
71bf
7348
fa8f
7441
68b5
09a7
78dd
80df
b312
5570
1ff6
9739
d71d
6aaf
268d
7bf2
1be9
c575
49f4
42ff
37b0
84d6
3fbb
469d
559f
9655
7e33
2a85
fa31
3c73
b71d
7447
63a5
80a7
a662
fc37
8f4b
3cdd
f525
0ee6
6b25
4053
7fba
54ee
f679
eb36
2f81
b721
542a
c2d4
4ad0
4abf
8f44
9708
1652
96b2
0ec6
3bb8
632f
f01c
2ce1
1d60
a556
8c29
63be
edf1
301b
fc4b
ed11
f7c2
fd45
1518
e9be
fb87
4aa3
be1d
5217
3cac
c21e
49cc
d19a
3cb9
edc2
53cd
f387
90b7
348b
12d3
ffed
8662
3f38
f71a
959a
30ab
1b27
6ca9
a2d3
b9ea
8099
17cf
bad3
9146
8d6e
2ba9
d4a6
70bf
266f
fb9e
5f43
e9fe
5348
871e
080e
bf12
2373
d52d
5968
f8b6
4815
6ae5
f95f
bf16
872d
683e
4637
eb1a
71d8
4534
1619
7f20
1c06
c9c1
4b28
2e74
d08a
e9ca
fbaa
741d
3323
9d42
deb9
44db
f9cd
f715
8029
3c70
e598
2461
1ccc
47e7
7178
a9aa
6edd
0b65
4b5b
e026
8b81
49ac
0851
5937
8df2
6829
f13a
34fc
49f3
5fed
c9cd
4b1b
2b04
5cdd
18c5
90d1
0f72
c8ca
74fe
f52d
345c
41cf
b9e9
9045
3697
33d5
90be
e77a
2e15
25d3
5eaf
72d1
1ed3
2a81
3b57
5fce
fcdb
5911
c95d
d4fa
58a6
71f3
e2de
579e
e24e
4f37
429b
a089
e38a
7de0
e922
0bfc
b029
397f
6759
1b79
7553
7804
3bb6
5f89
ef43
67e0
cd46
04e2
67bd
ef21
1293
0b95
187e
b26d
defe
195b
47d7
7b85
a986
3ce9
1730
9696
20eb
2225
39e3
6c8e
af8a
fd4d
196b
21ec
dcff
202c
fa55
2f14
097b
3cd9
2e08
bd76
368d
2f3f
c121
994a
5c3f
af56
b1bd
071f
2f33
8eed
9326
23a6
d1a2
442b
f298
9f36
69c7
0ae5
5219
827e
f836
3b13
43c2
af29
7520
08b6
909a
0ab9
ff42
864a
493b
f76e
8092
caec
b236
1c72
53e2
460c
7597
ce6e
5d94
4227
4228
f2ba
fef5
4ca7
7ac8
ee11
0d43
75f9
520e
a731
de3a
0f89
8b98
249b
e382
dcb4
144e
3657
3f48
de4e
3153
3db4
3123
2f99
37ec
37bf
4495
1879
4612
ba61
4477
cad2
28e3
57d2
0f5d
26d2
2245
0de0
88bd
1403
2ea9
0c45
a9f1
6553
7492
1e38
1785
12c5
f6c1
a9fa
7393
0fda
ff9a
4811
d18a
2588
209f
d61a
7b91
0992
8d3a
a706
214b
d9f2
1938
591b
a4d9
27b6
47cc
5475
7313
42ab
5aa8
ef3d
1955
271c
54ff
1609
fceb
1ff1
912a
8296
7173
1ffb
f55d
289c
f261
6619
fd14
07f5
c579
3fb9
690d
ce2d
6bb6
930e
2b44
bf3a
631f
a139
f8d2
cde5
98c2
2028
f21d
5e78
8f20
8706
a92a
a170
169f
be71
5eb6
e166
b046
9d92
1378
0c82
406c
55bb
629f
4660
267e
438b
4b04
427c
22e3
9751
21c7
47ec
7548
4aa7
6b1b
eadb
e664
af92
b18a
33fb
3a6c
bb6d
8a2e
3910
53e9
440f
577c
835d
6e95
0a97
1a99
5a7f
41fb
6c96
8599
40cb
f265
7e19
0cb9
36d2
fc1c
cdb8
2f21
63d1
7ca2
6648
2ad9
3fd5
09ac
a5c6
445b
41cc
4187
7908
7564
cdae
6ea1
828a
3f20
a6d4
5f20
b019
7bc9
5c12
a18e
5299
dde6
23c7
5d2c
6a09
67ec
e7ee
6018
2a09
1aab
b4ce
4d3c
5fe9
8de8
40d3
331b
5229
3fe9
6893
7137
964a
8b68
feef
5479
a076
12a3
9ffd
69a8
6187
7cae
a191
5748
e6d6
b9de
cd29
45eb
0fb1
38c9
89ed
cd82
09b7
cb11
f08b
a67a
c3b2
4177
940d
fcc4
d0b8
a5cb
e0a5
c1c5
5f4c
f3d3
e069
1ce2
19e7
7687
3b3b
25d0
bfee
0806
b8c2
f2e0
7e59
5587
a506
7fe3
e072
0e93
b0ba
531f
bd15
13f5
369d
7767
2073
266a
5e2b
1bc9
65bb
8589
0c08
45b3
b635
2498
7544
ca75
2c5e
12df
f108
0e5e
7ba9
bbe9
a5b5
d5d4
ffb6
33d2
628f
435b
2609
4b9d
2c35
4017
5178
1744
0efa
37ed
28d0
36af
2b98
5a1f
d07e
9e95
bb76
c132
54b5
3d34
e035
ae75
6bce
3b7d
fb70
e6b9
84d3
dd4d
d989
3381
c066
19a3
5485
a0b2
651c
2cf0
2c16
431f
23dd
2769
1fa9
4fb1
e4d4
7678
308b
de76
0d6c
5328
b51d
dda7
0b8e
18f3
60bf
4ecc
8063
68aa
54a2
25c4
2594
783c
a1a5
813f
0b6a
3a53
0e79
4cb1
4f2b
d199
eda3
666b
b056
26cf
21d0
e6ce
b992
b186
9e82
d345
59d7
e13e
732b
573b
73ee
b2aa
3158
e1d2
070c
9772
b5cd
e5be
827d
4757
1fa5
4eef
ce8d
eb51
5cec
2fb9
67ea
a9c8
4b43
36ed
ad72
176b
8b5a
2651
bb6e
643c
f08c
340f
a0c7
3a2b
1e17
e715
131f
5e07
fcf8
0771
89c6
e8d2
f71d
0b4f
657c
693f
5aa5
6acf
3fa3
83ae
9081
d0e9
613b
5c91
9925
a131
9052
4ed7
59df
23ca
09f8
3c2f
d119
5af9
04f8
5c85
fdd5
2e25
977a
08ed
451f
d581
e17e
624f
7d48
498b
56e5
3c9d
4c72
56a1
d0da
5c9a
c342
3e07
4d9c
17d6
307c
fed4
9a31
8b6b
2a31
6bc2
e61d
8f48
390c
b1d4
0723
9e9d
8912
600c
8061
3ce1
cf26
82fa
3e6f
7cbb
4f6b
16f5
3bc5
e69a
8869
d4d3
61c7
5239
a329
5fc3
a4c7
9263
12c7
7217
3b81
1b61
8f88
c3d2
9328
1608
9b4e
47d0
452c
670f
5304
13b9
5456
0eae
09eb
6c85
903b
0f13
53c2
d196
c74d
c165
f921
177c
e22a
ef34
6789
45ac
f4c6
e5de
5451
4923
6513
d682
52ff
7dd8
2c66
3523
4ed0
5c46
47a0
145e
5774
e303
0724
362b
22bf
22ed
6877
c706
4be9
13d1
6e15
0734
263a
ec7b
f4d5
0b85
413e
1c39
684d
384a
2ce8
8f67
fa49
c6b2
b5ca
54aa
b98f
162b
9006
0e14
2b4f
fec6
99cc
37d7
77fb
85a2
6a87
e225
5fcf
193c
1c7d
ed65
a019
164b
2dbc
08a3
b3c6
f181
1cec
9aca
0f6a
337e
f0e4
72c9
4edb
56f1
f8fe
7f2c
4369
0cf5
adcd
3a64
2f04
9149
872e
5463
58aa
2f03
6b73
c67d
711e
db0d
77fc
492b
5d0c
7697
4c2d
30cc
7e1b
9e8d
39dc
f5b1
7f5a
f6c8
515c
5f86
fd98
c123
58f5
179d
0ab1
56f5
7957
bf81
237f
6cbd
dd6a
2f27
e90c
b211
fb11
b9d4
9a92
c2b8
2eee
2a30
39cf
35cf
e306
fe35
12e8
76a1
ee4a
39df
897a
3d58
9dcb
c162
fda5
0a74
56ca
56d5
f633
2143
78f0
633c
ddba
0814
3d74
3c85
79c7
9f03
624b
7b6a
a64a
4f92
1be2
2caa
430c
482c
5e93
8d98
c75a
4909
db32
0bb1
26ce
4948
a945
a4fa
34e4
0d87
d9f5
17d1
f662
7d18
f73d
124f
223e
b953
2723
25af
609f
bd13
f57e
304b
bac6
f452
3dfc
689c
8921
db36
3bde
f18e
e1c6
2530
70a4
f003
2563
2e0c
f17a
6097
8bfc
6b44
8206
fc5b
a98d
6c16
b316
24bd
74f5
719c
142d
43d5
7a22
f0f3
36c3
5efb
f013
dded
bfd5
e9ed
f131
bb4a
debd
e9b7
2c91
9031
69cc
8622
8dd9
f1d3
2ba1
1ce1
c576
2fa5
9a61
1eb0
e045
b0ca
3b10
4f89
5f7e
5cda
6c09
d5b8
35c4
2afe
1bc1
8efa
2441
f068
3ce7
8034
abd5
a5b1
a9c9
82e8
21db
eeb1
9789
08e8
48a5
4cc1
b2ed
2381
b370
b7ce
e6e8
1994
4407
bd99
8086
90f0
c236
1c99
9f09
fdd1
400b
1212
90e9
e2aa
88cf
174c
8b95
d031
1c2d
0c69
0eed
37dd
5895
e636
4317
c70e
17b3
98bd
8e1b
b682
ece2
3b2f
1d8c
853e
cf6a
12fd
b8e6
3a94
6a1e
b5e8
3109
890d
fd8d
0b84
1c7c
bd5a
21a4
1570
ffce
b935
c971
1ab7
8b91
5a11
2d30
5f30
34af
5528
ccfe
f609
9686
b0b9
53ab
8db8
b77a
a319
a4c6
38ae
04dd
5791
17da
0b1f
90e6
3e71
faae
8e74
7704
60a7
4f23
c1cf
db26
36bb
0aa9
65fb
bbd6
9992
3c15
af26
f54f
33e8
3008
0c3a
94c6
55b7
c8ae
79f3
d46e
f5ee
ddcf
35c8
9f25
e72d
7bbd
9014
3988
6793
a586
e981
cb76
8bd2
d222
38da
a41a
41eb
3fc8
0ee8
1de4
0c25
1cfd
15a4
782f
e536
9eea
9e66
817e
1294
c25a
9325
76e0
44bf
d4aa
c206
30c8
b6b1
78d9
63bb
b536
f208
761c
6bc6
b279
195f
bc96
72b3
191b
f084
b09a
8d41
81c6
f446
0def
46af
5668
b215
ec3d
2389
6048
0887
853a
e3c6
975d
b5ce
d57d
33da
2b13
e00d
93b8
4008
18d7
19ff
8730
9d65
f5b6
e422
d71e
d7d9
1a92
1379
a145
b745
a598
2ac1
f83d
7485
9ff5
1647
f0d0
2e8b
f631
1d28
ca2d
baba
de55
df19
7560
3cee
09a9
2495
870c
6210
de5a
9975
893d
38f6
cd36
8569
1363
71b3
bf0d
dcc8
72fd
4bb3
3ab4
e031
0ed1
1b69
b232
27be
8745
25a0
4caf
36df
c6b1
8f4c
53b5
edcd
0fa6
c1bd
e355
33ea
1225
72cc
8c76
5160
fac9
7359
95cc
ad15
fe45
ea7d
d14d
1a15
3f77
d41e
0ea1
176e
8b8b
e236
c665
a68a
9931
6847
24be
6724
0b14
1663
feb8
1ba3
63cb
e14d
2168
9962
4c33
87f6
9125
a9e8
e929
baeb
8a62
e88a
60a3
e926
7b48
feb2
eb52
23cf
0c99
58ba
e15d
579d
52d1
80f5
7594
8b89
eb56
f869
7411
6538
a55d
1adf
8993
f981
9f1a
9949
c582
56da
8735
170c
2799
a1cd
d55a
2fd6
8d82
74e3
3fed
717f
c065
d5a9
e7e9
f137
cae6
abfd
21dc
df4d
d45d
2765
4ccd
88e1
0bc1
59b4
bb09
fda9
6a73
3f59
47cf
f722
b56a
73bd
60b3
1bcd
5cd1
b93e
73a9
c57d
6395
859f
62af
e7ca
2a4f
431c
b912
cd3a
c019
45f3
ef99
826b
228a
3886
f792
dd2d
c516
db8a
428b
a698
c5aa
5320
658c
8f24
a539
302f
22b5
ea87
3c75
5524
5134
75a4
b546
60b7
cede
1aa3
6617
e68a
3930
2b03
831a
eaf2
138f
47f3
efe2
253b
7fb5
28bf
1e48
f675
d85e
fde0
3964
55b0
a597
a0f5
ba9e
794f
1cf2
4fcd
71b9
9a0d
4074
0a41
bcc2
a7ba
5799
5e23
22b4
77ee
c7a2
f9c5
ea56
7cd4
1366
0eaf
9df3
1295
1a65
d92d
f1e2
7197
7ae5
76af
3a3c
7e4a
67fb
f969
fd7b
6819
f25a
ce98
ab13
4978
3c37
c592
6ec9
4bd5
2fac
fd13
d526
c65d
513b
7c85
68fe
14e2
120f
ad96
bee6
263b
fb42
7958
3899
4b85
3e8c
a9f6
bde7
5414
3629
ab70
e036
fd49
f33e
f232
ee86
f346
0d18
2dfc
c1c9
c20e
3460
5c95
4a94
65f8
5647
5e43
e6ff
e945
b9d2
e7fd
3609
f7d1
e0e8
04f9
5a73
6b33
fa99
3bff
757f
1907
5d08
6685
43da
f5e1
726a
2b56
f9d9
89c2
5371
1c31
471c
7738
415c
1f5e
d945
5f71
8f43
673c
ddd2
3b0b
7a3e
9b45
c0e5
734f
35e4
7568
ab19
1b3b
b942
3e09
6cc9
a115
e9a5
709f
2e28
2230
410b
6603
0768
5268
4287
15e0
bd6d
4c25
552c
febb
1320
5927
b556
52eb
04d6
2214
2fd5
d2e6
53dd
131b
72a6
8bdf
7ba8
27e1
40b7
f27a
74a9
9731
c17a
ffb9
b2a2
5918
7dac
f733
33dd
30b7
b2a9
d16e
08cd
3ccd
4fe5
1241
7277
8b99
5afd
8136
23a8
845e
b296
6924
c8d4
cbea
9b91
90e5
0e8e
5ebb
e632
ec3a
7ddc
082f
ae86
1b57
41d3
67d9
070b
0885
3544
8946
3c33
e1d6
b42d
3530
4f61
873b
f568
8035
b5fe
4b95
b2fa
ea66
3c44
1d0b
93fd
6c73
47c8
36f3
309c
6bf4
bb1a
4f74
a8ce
b966
5f23
611b
cde8
e366
d74d
e629
c36e
8866
c3ea
3aee
c1be
4873
e5f5
2a1c
d03e
8872
a75a
c43a
2de0
d396
17c1
8c3e
f752
b00b
6ce2
9165
7f47
e975
391c
7809
21ab
07ae
1ea7
258b
5cf3
7891
a566
e421
e9a6
731c
62eb
5a1e
c759
8539
7a64
92ae
0eb5
6bca
3960
38b1
7add
16b7
90dc
1e6c
f65a
22cb
bd6b
8575
d9e6
eda9
16f4
b94d
56e1
6b07
c81d
7371
6148
dd12
13ee
4c7a
8fca
5892
95da
182e
1485
3647
413c
f7ba
23e2
15c4
7ca6
e52e
61df
21eb
5cb5
cdee
79a7
fe37
0baa
36db
20f4
a246
d969
dd69
eac1
a497
4829
55e4
b5f5
cd86
d30e
ad16
722b
cf42
6a23
fbe8
b35d
d9f6
f15d
6334
7e9d
8266
b69a
24ba
19af
552f
20b4
5e2a
2ddc
d296
1597
57b1
1a97
b2b5
4822
ad26
3124
9fb2
0a8c
5633
27c2
9c7a
1fe9
12a6
2008
763c
6aec
e9d9
c921
0a75
0e85
2270
b331
7ce2
4bf6
4c3e
1ee0
1bb2
b255
8ed4
992f
9261
1e30
2ee7
0eb9
99cb
3873
21f3
3903
4cb8
fd78
2fdd
7753
af4f
3fc5
91d5
3c7f
e129
fd15
40b0
1a1b
fe76
559b
1509
4c77
7cf0
995a
6cd4
f8fa
35dc
69bb
f4a6
c1b8
c2c5
cf5a
cf41
5f6e
c349
cc1d
ddd6
54f2
6328
57a5
b549
7a11
0bb2
1e28
df49
798b
9cae
a045
2ae5
1ba6
7d53
0836
0f08
269d
45a3
7787
8f2b
c2ca
0941
7d58
5879
744a
1362
38e5
55a4
3af8
cee2
4882
a9ce
58ea
f7fd
7703
e925
db2a
7f31
2e91
b03e
6bbe
418b
79df
b356
9375
8ff2
448c
4823
6773
62a4
bb4d
a95a
9ac7
b876
2669
fb96
ec3e
4baa
3c2b
47e5
61cc
0781
9e72
a04a
8535
17b1
62e3
66da
ee66
2cd6
4ce5
62ef
2b38
9d8e
e8ba
44d2
972b
b5e6
c962
0f0f
43f1
8309
e3bd
5477
e9b1
a1ae
2109
4fe9
5815
0a98
0a88
a229
3e65
a6aa
6841
dd41
0ac3
e461
5f2f
2023
fa86
ea3a
a682
b644
d93d
c3a2
49eb
1943
303b
5e86
2f4f
b6a6
cffe
6184
d1c9
1275
964d
9008
fb52
4f13
0e08
8db2
1928
3478
77c1
4abb
8cae
80e1
33c1
f038
85ee
330c
7fae
bfaa
6efd
7af2
7ede
1bb5
e5d4
4eb4
ae69
2643
7b7c
07a9
09ec
2e09
e709
466b
baaa
3f13
9c32
75a0
1967
63eb
6b21
d8a2
81fd
917a
ff65
0b89
62c8
214c
27ba
f117
93b1
7fb6
7acd
db42
7efd
f6d9
fffb
fc6f
f547
177b
ab51
0c73
676b
57ed
1677
56c1
1bc5
4310
7817
a4d3
46ee
c5c1
f28e
6633
c56d
edd4
4c39
3f1c
ee1e
351c
258f
3774
c195
6e17
d955
518b
9996
25a8
d306
d471
2ac3
cffa
5737
892e
f10d
336f
cc3a
c75e
e6ed
3ea7
4738
cc9d
e17a
7acf
b23e
c32e
1909
b1fd
ffaa
4070
8dfe
e492
23d5
47eb
ad32
0bbd
5692
715f
a5ce
746b
18dd
b0c5
824d
6348
544c
76ec
1498
4e8f
1f96
2310
4cf5
5fa9
c175
f739
9a5a
b67a
fb76
1933
3b23
fcf4
1639
52cf
62b7
cef2
6bbd
d059
df59
441b
d3b1
1fa2
7227
722e
e2a2
c6d2
dadd
b372
974d
ed82
0c03
667e
b1c2
96e1
adf1
9ba9
0704
d0ca
5ebf
719b
0faf
3a87
6b14
8ee2
43b9
570c
5481
d58e
72e6
c335
db51
42c8
1b9f
44b0
14be
07a1
27e6
92fd
1871
0a33
36ec
2c60
e9e6
7aa9
bea6
e73a
906a
3f75
a681
c182
3148
35fc
67cd
7caa
c7ee
14f0
4cd5
b036
b0e9
9fd6
3d18
e367
5270
f2ca
2e77
ff47
4906
14a2
7a2f
d606
a45b
156f
40f3
28da
b66d
47f0
876e
5ccc
55c8
c418
bafe
8ab2
3ba5
27c5
cd3e
ad86
7a47
148d
5634
f62b
fbb2
ecdd
819e
ed33
3ff7
7abb
0bf9
dfca
252c
337b
0f14
8e5e
1c55
4fea
a9a2
7a8d
9912
a129
94f9
26e5
08a6
25a3
3ea3
458f
12e1
366c
d72d
1a9c
51e3
4dd8
24df
599f
7fa2
ffb1
4c41
f21a
ff34
531c
ad09
f36f
d16a
367e
c21d
42eb
2a51
c6be
d5c2
f821
1247
76a0
2ed9
13ed
53aa
86e6
95e2
f16a
98c1
6b13
b35e
f741
d33d
39f3
8561
b11d
54d7
7a71
26d1
fc18
a0af
e73b
6e70
518f
51ac
158c
66bb
2ae7
b95d
9db1
22d9
553f
d656
6268
3b76
fb4e
69b7
8be1
15c8
2c2a
92de
d752
3a24
c725
27c7
e329
18be
0789
0759
2efa
2619
9d52
1f59
6886
586a
5920
7584
591f
23e0
e0a7
9de1
c0bf
7f17
e6cd
7c3c
a5bd
71a8
40fb
c662
4fd6
2789
63e3
2fc3
4fb9
46b7
2be3
5e6b
f19e
15dc
4297
21a8
54a6
850e
d808
ad56
7257
721b
1aa9
e03e
4844
df7a
3ce3
55c3
58dd
639d
5e67
4898
bf73
a166
a92e
b542
f276
ead6
eab1
1c3a
4ba2
22db
de3d
188d
2614
2291
1ac4
dfe6
4c82
5759
6667
2a7e
bdd2
91ea
dde2
e372
c0c9
de0d
728c
59bb
4ea8
a595
b925
e562
367f
2cea
44f7
c09a
3ee7
ded9
674f
b14d
c79a
a569
8339
edb5
95a2
e17d
d6b1
4695
194b
588a
a77a
380b
18f1
f24e
12fb
1499
6a28
eed4
a4f6
89b9
6e9d
0d78
2528
8997
2e53
f606
9352
76e3
5295
b57d
b4bd
38dd
0f79
8632
2f89
385c
84de
95b1
6795
b17d
ef07
f552
c0b5
3663
62bb
66f5
3bd1
2fd9
2c71
8955
f14d
bd42
a416
d592
20a0
212c
bf25
5ed8
8f30
1acb
7728
6738
2bd3
9f4e
3c1b
388b
e186
241a
2b23
2187
4608
405f
179f
6b6c
8f7a
6b28
23bf
f7b6
6eb2
8258
d912
b162
2f95
1710
9ab8
ca56
2637
a6ce
1953
3438
4f93
df26
d2d2
834a
4c92
23e3
37d0
b446
4c1f
abda
4934
5816
a15f
979a
0cbe
19c4
7e91
6943
0e47
db0f
56ea
24a2
24aa
1e0c
54d5
e9d1
dbe8
beaa
d7d3
6944
3ef3
b29a
ef37
6392
6723
d3e6
71dc
160f
7337
ad2d
ebb6
3f7e
c66e
56ed
3b28
661b
23cb
98fd
9eb9
7cea
4cc5
fcf7
17ee
4b99
7757
1307
d6f6
ea45
3cd3
fd9e
d01a
4899
56b1
f64f
3cca
2786
48e2
21ef
dde9
7d24
9b15
367b
46f7
259b
2acf
bbeb
88a9
5ca2
6827
7cc9
dea2
b0ee
d939
595b
63ed
6b2e
eb22
2b08
15fc
4eaf
db4a
cb1e
52e3
73fb
0829
3509
ece9
5fb3
7bb4
d22a
2548
5fbd
5e25
fa3e
fa14
3cd2
21a3
6cb8
ecf0
6cb9
6cb6
0985
8fcd
5678
66a0
771c
41ef
970e
7368
c9bd
6b2b
f521
cb5d
967a
7b5b
f1aa
420f
cf2a
0a89
3553
58b2
6ce5
0fc5
5c87
7c24
df62
fa8b
2cd3
21cc
cdd4
dfb8
ab49
e229
9049
7121
5184
6bd2
bb14
dd67
2568
c431
d1d4
8091
2a8d
bbb5
dec5
d89a
1548
652c
6b4c
4f3c
2760
089d
5499
b9a6
1249
0b79
7213
36aa
8b6c
4f69
22d7
c70d
c52e
95d5
ef65
e3d3
1415
2cff
2c39
54a9
5fa5
776f
f19d
7aa0
2f17
0d94
bd0b
ad85
575c
fb39
9914
691b
8cc2
d41a
43e9
da3d
39d3
b1fe
e546
60bb
5606
7bfc
e2c7
8eda
91fe
bd2d
b1da
e48e
1459
2734
b715
56bd
ba5a
fa2a
2189
6c4f
b0a2
7112
97fe
d022
d2ae
5957
31b0
7833
bd5d
68ee
7d38
7238
abce
c6ac
fb66
7517
4493
3b4f
9eca
b25e
219b
675f
89d1
ca5d
21e0
ee7d
ef1e
3c1c
c916
4224
a979
e4c2
1a23
268c
bbc8
787b
49b7
9ace
1fe8
2208
2f63
b1f5
dca8
077f
6038
eb5d
491f
386b
13f3
eaef
a356
f49a
e161
3d94
7893
90fa
a635
0c07
52df
e982
be1a
7e93
e09a
1944
b7f2
ef66
17cd
ab5a
a935
44af
e86d
2ea2
72d2
848a
4094
2e8d
19bb
5237
68f0
233c
1fe4
986a
1ec4
2477
900b
cd65
fdc7
ffae
54ea
ff43
ded3
5174
77b6
f62f
594c
3c31
b736
e19a
63ae
77a4
b9e1
e0ee
d0c3
fff9
6c12
2433
4bef
311c
8d72
6224
d796
cc4e
333b
232c
37b3
e319
f27d
ae7a
bbe0
6117
546e
37ab
8199
f9c8
ad36
7239
6258
571b
0e29
9f4a
1f17
5809
20af
cdaa
dd35
9a22
2e41
6a49
6a67
fee5
222b
1fd4
b919
71af
43ea
57b8
b656
a812
cd2d
b432
683a
4507
ad3d
40e0
7a29
1471
7f8a
7399
5ab3
cc98
748e
65f3
82e5
da72
e879
389b
ece8
67c8
a2b1
7ec1
2f20
53e3
2362
e4ae
7d28
9822
cb66
90ce
4c8d
7eb0
13f9
350c
58a7
1544
efc3
f7ae
8e66
bbd5
4fcb
714f
1964
4ca5
9306
9131
bc3a
79e7
a54f
bef5
2513
eb7d
b625
e674
f13e
a321
477b
5594
2b8a
1fda
999a
2ff1
e806
2e7b
5a6c
22ec
afc6
f396
7695
ed95
ca9e
2e6f
5e51
b345
08d1
3ca3
c27d
7fd4
c129
243a
53ed
ddf9
e3d2
1491
65dc
e51b
d6be
ce46
95d9
cb0d
24ee
2537
692f
c772
c509
ade5
8f7e
a955
81dc
b37e
783b
97fd
c7f6
0d9c
b70e
14d7
4625
655b
9106
0ae6
3e47
49dc
c15e
39cc
0c52
851a
3928
eda1
2ee5
71cb
ed5d
0ea5
8486
8031
826e
c95f
51a4
2cfe
6ecd
08f0
6c81
3cd5
4f24
c491
3685
395b
2235
da7a
6720
5338
8ba9
402c
cbce
28cf
0e45
3f87
852e
81b6
4087
986e
0871
65b3
f832
affe
a991
836d
ba21
79cc
e152
84ce
1fee
adce
b0b8
2688
dfdd
34f4
7267
70c7
b62a
f141
55ef
0c2e
65c4
80b0
9b3d
65fc
4ec8
a949
4cb6
12bf
8c9c
ec4e
88e3
0b71
b3da
c37e
e1d9
e159
f86e
7577
7e08
8172
8316
33a0
0eb2
d852
f3f2
84f6
58b5
15eb
2128
ad5d
92a9
0e7b
5a89
4353
ec8b
38cf
c344
c5e6
72e1
238f
718d
350b
8acb
44ab
d16d
72c1
6614
e6b8
e6bb
bf4a
f156
c5d2
b1cd
18cc
18b5
36b3
2ec9
bf36
841e
1b0c
fc17
5498
b57a
79c4
18da
8265
393f
1c98
58d2
efed
0c61
813d
1a6f
0e91
9333
d4a2
69a4
e4cd
e173
7284
7fd1
6aa7
4f9e
619b
af4e
f345
3baa
2a0b
121f
52cb
2eb0
e07a
1ce5
ad42
26dc
8d12
08dd
1fa1
b1c1
a2b9
2e43
3bb0
da2a
ef31
8117
9575
1f23
59e7
c10e
e53b
408b
6eaa
9a5e
70bb
e0ea
66fb
865a
4b91
30c7
56d6
b024
5699
e5e5
ebed
0fa9
4697
69eb
a1b8
8979
a852
a71d
d5da
4fa2
e0b2
2a1b
fc73
38b5
7523
c58e
cb4a
7e86
7858
2c0c
8de6
752f
1759
e6e6
b96d
6b78
7964
6907
cd1e
6cf9
77b2
ed75
6b53
9e8e
a61d
3560
383f
91a1
682b
b8d2
6b17
2117
e6ae
b4a9
620f
c472
e527
1a77
5ab4
ff79
5e8b
95b9
95c1
28e0
14fd
13cd
7509
14c6
b8d6
0e10
3c9b
e19e
e13c
270b
1433
f915
534f
578e
5edb
3ebb
8f74
2cde
1398
63ec
8546
9d2d
f84a
a5d2
2703
965d
8b5b
889b
74ca
35b0
95e5
b4b2
c585
4aa4
46bf
6658
ebce
191f
13b5
6e3b
a1b1
2cd1
ec46
416c
b16d
e526
0a87
7130
fd33
216f
c01e
211f
7223
65d8
8f59
4164
84a2
39e7
9a69
3f5c
a65e
7933
5958
1330
cd5d
8ffc
e711
2e6b
b0b1
b66a
8a31
80ae
7da4
c709
c1b9
0ecd
ba16
d5b3
89e7
8626
5cd9
f149
37ac
a0f9
16bf
905a
d0f5
eabd
639a
c876
a921
ecc1
962b
3bdd
f96e
8d44
3817
2fc1
4d0c
e58d
20d7
1f34
a915
81be
1338
b4ea
c0a6
153f
e9d5
adc9
52fd
fc98
1baf
3068
31b4
38d5
889d
cd72
c131
ecb8
2f8a
b64e
3879
bd1a
a8ea
3fcc
ee3d
e435
70c3
42af
468f
30d3
2edf
c181
8d59
b1a9
1f66
c011
cbee
0afb
5643
3bd5
3f1b
2113
57c9
75a3
f9f7
1877
7fcc
9ec1
14a5
0c17
97d3
f5bd
540b
f614
b74a
58c1
79ab
0a58
f23d
0edd
bbcd
699f
cd26
1432
1f37
9041
2043
57a6
81bb
a0f2
be7d
0a14
5287
ab4f
da76
bf79
f329
55f0
2334
fcb5
bb2e
9d0e
0a1b
0ee5
5a60
bab6
eebb
6c63
6727
e48a
b86a
6b6b
f91e
bbe8
7451
8d89
df61
c955
eb2e
270f
75f8
2ab9
8a6d
8949
9cac
a5d6
bb23
b3d4
c98a
d9e8
602c
da6d
439b
89a3
36c8
568a
7710
8571
9ac1
553b
2b67
bc4d
3fec
fe49
826a
e8f2
99b2
57e1
66c3
edda
c7d3
792f
d53c
83ff
14c9
f292
3e43
b292
5fe3
a4ee
19c8
44f3
448a
53c1
4bcd
1d5c
bdb1
4c67
c161
2f9d
a5fd
fd79
f249
e28d
46ec
edb6
150e
57c1
cb3e
fa5b
41bf
1642
c1f6
2a0c
2eaf
20cc
8bde
2bdf
e6f9
153c
8929
a23e
8ec2
c979
4594
79f4
4be3
2bde
44cc
8fb8
a9c5
0e89
774f
7f6a
920d
883b
5fe5
ce86
5a98
d349
b132
e442
7323
2018
feae
524b
cf3a
2645
8a61
16e7
201c
9b4d
1869
a65d
ef33
92ee
5f1b
a169
4ff1
1c95
5194
665b
d8c2
5867
16df
0a64
46d5
09c7
cc2a
40d0
c222
2e68
2b99
d081
594f
c9b8
4cf2
d543
fd25
fd9f
fd3b
0b75
7e25
e3fe
5619
a4b6
1fc7
5d0b
e5f7
b8e8
7e88
6aa1
fe25
2a14
c5a8
4885
5588
67e5
9059
b971
e8fe
486b
14b5
2f07
a199
ed2b
6e86
0cda
7dec
63b5
fbe5
0a70
826d
53d6
453c
910d
9e16
eae9
6cd6
605c
f64c
396f
88f1
d1c5
e995
fd21
a029
4626
a241
88a2
0d8c
3b2b
2b28
d72a
2bd2
2a36
b2a1
8e26
a9c6
af17
13e2
09b3
b0b2
d95a
93c6
0e09
4aaf
484f
0cce
449f
e55a
c29e
68c5
89be
ff0c
f1f4
6ed1
c0d2
4685
0ee7
8ee6
0970
5530
34b4
e5b8
fd2a
db1e
078d
76f3
a275
e244
3e1b
fb92
5362
1fc9
390f
c5f1
8389
ab56
ab41
7b6f
e2ed
3eeb
913a
9666
9f29
087f
2d7c
37eb
a193
fe26
fa85
08d2
27cd
f5be
3395
3c09
4928
ad39
a023
623c
ecc6
5693
d57e
d525
ca96
c681
fc7f
8d1f
0835
e1e2
b7f5
fd39
305c
7ed8
b21e
e6d3
4058
7bd5
138e
a32d
4b24
6abf
26dd
d0cf
5148
53d4
92f2
b32d
e1c2
4b13
60b4
e604
73cd
b9a7
c9fd
0a7f
1fd7
3cc4
4764
8037
1214
3fd1
8e79
f155
93d6
347f
0b23
186a
0aa7
4ecb
5fdf
e9fc
8906
56ec
8dbd
3e3c
581e
85df
b014
8356
6eb5
fa9a
4f1f
c956
f441
3ba7
e0a9
fd0e
f3c5
83e5
d34d
384c
58e2
7f0b
71f8
8c72
8a41
7811
0dec
c1e6
0c97
0727
f74d
1c0f
90ae
d1b5
f5b2
8026
db16
db5a
1baa
8f07
c02e
8b74
3c47
63f2
1503
5ccd
e476
fb03
5f13
23a0
886b
2b27
9c6a
5fbb
679d
97ea
76cb
a122
09ea
21c8
398c
ad4a
3b1f
fb07
dcfc
3a23
0cd9
0703
3603
88d5
6b81
fc1f
b982
f40e
a071
2a39
de42
e9c6
8936
3c78
53ee
1b2f
6909
c96d
a232
6b10
daa9
7133
edb9
8aaa
7874
edfe
6835
3cb3
b1ed
4485
8e0e
b70c
e5c5
7aa6
d26d
dd96
f8c2
48ed
90a5
1a08
9775
7a95
0be1
fe29
feba
8971
a732
548d
832a
17c5
5e13
5eb4
e569
132c
2e32
c5f5
adda
a082
0b62
1422
7e71
7bb3
6e98
b85e
726c
eeda
2338
33cf
db31
73cb
3a77
48ca
935e
8598
13a1
43aa
a585
33d7
9086
7b73
eb91
a9e3
9c52
38d1
658f
8549
73d9
5eb1
da36
bf32
937d
92b5
1abb
697c
b0fa
2663
1b13
2796
d331
1508
f0d8
3627
41b0
213b
ef14
f711
4be1
67dd
ff97
0737
66c7
9533
63b7
b9da
1b85
33b5
9a56
9026
b075
23df
a7d3
2479
5cc7
9a7d
4a8c
ae42
2b37
5e64
804b
2b1f
0ce3
4ba7
58fd
2abf
49ff
c5b2
7db4
a58f
f50d
7cfd
905b
0ef1
2257
c629
160b
312c
46e3
2499
33fc
1625
ff33
46e7
43ed
7587
42a7
30eb
2c59
0c09
08b3
2144
511c
5891
0b3f
1493
9829
6a29
2b20
3b1c
63cf
abe8
3f95
ddf5
c05c
2ab5
f5d9
6b27
4423
99d5
a0c5
3a84
2bcf
ded6
895b
990d
e985
66f7
c9c6
f1da
dd16
f1af
0cfa
a476
daae
e149
e5cb
44a8
dbd2
2b8f
2a8f
bb72
fbce
e4b8
9c08
8887
9dae
e277
2a23
d05a
d05d
9f3d
a1e8
07a5
a9a9
9076
4c13
2a37
862d
1cdd
b5a6
33ce
4acf
7233
ab75
0ef2
3e73
8a7a
9f5a
489a
1a0b
83b2
9bf9
571c
3b30
1b53
8c8a
b68e
e9cc
6871
e592
b015
19b0
97a2
d406
e593
b6f0
23a9
a993
5a4c
1f33
b41e
f336
48f4
d282
cc50
170f
e866
6cbe
8fe4
f1dd
33d0
12a7
698c
90a3
7f9d
e6b6
1978
3064
e99d
0bf7
18d9
62ff
3bb9
933f
85ed
90f1
ae2d
e2a1
9345
16e9
87fd
68a9
0991
450f
08db
b351
dd4a
8832
23f3
5e28
78dc
089f
4c3f
7b58
fc30
e16e
84da
a42d
56eb
5e5b
495f
f578
f297
2eb9
a6f6
8afe
fb14
e18e
879e
0b8a
4fd7
43b6
08c9
2e3f
4c44
561f
1b71
5823
ee76
df47
54fe
7be2
ab25
3984
ea8d
9755
f723
4403
5558
6ca6
7803
8e36
97b2
c73e
d556
a0fa
9225
d6ae
fa62
ef46
b59b
bdb8
f8bd
b298
3318
1a3f
ff8c
2aaa
8277
19fb
13ba
3e3f
5997
747e
7474
33c2
9b35
c0d6
d632
d098
45b4
53e1
545f
208b
4f86
9c36
13d5
0bd6
0a36
af96
b141
73a5
48a8
0988
220f
5f91
c2ce
fdb9
1391
356c
072f
2bc9
bad2
ed4d
ddda
316c
2ce2
bdb9
ffe5
905f
865d
0cca
bd5e
bff9
6bf9
8c33
8841
c1e2
b99d
dd86
4030
4b18
4674
3a8c
9d41
bb98
eeb5
f159
5334
0ff6
f72e
3920
61b4
622c
f8c6
c432
8be5
7aa7
e31e
52bf
a262
5a23
6bcb
b6b8
e655
7c8b
5381
2f24
d999
d116
60b0
ab6d
b63a
956e
2108
a2fa
6c35
f316
6873
65e4
653b
1caa
4ca9
8209
16f3
b222
9fd4
8fde
b756
cf66
28ab
3eb4
22e1
3974
43d9
a998
31f4
54c5
5fc9
167c
cdf6
c999
8075
d679
4ec4
0e19
d08e
f496
612b
0df4
ca0d
feed
f311
7dbc
996d
bda2
2edb
6627
e65d
2cda
5829
2412
76ef
f7fa
6e2b
e375
4e84
bc7e
89f1
9d37
8315
2a3f
4f5f
44b7
d862
f9e9
f972
6be5
8db1
7cf5
17e1
73b0
861d
227b
b2cd
cd16
88b5
add2
52ef
565f
8e49
6758
d141
44d0
8d63
22ff
5c47
88f2
c315
3cf1
6109
28fc
6234
4619
6a53
585e
2060
2475
4d0b
add6
522f
4787
e949
b346
3f07
a709
fdd9
53e6
2137
9eae
0a31
1831
7cbc
ccf2
2e5b
0e51
fc07
2ceb
09f3
89c1
8807
958a
90d9
bed3
7e9f
b0f5
b246
fbba
e967
1988
2167
61bb
c075
2db4
96d8
1411
eb76
41fc
237c
0e3b
8126
d35d
805e
c2b2
76ff
c635
1c7f
0ac8
a5d1
b523
f73e
62fc
2bc1
de28
f975
2baf
e332
f5d5
467b
f198
7a77
bb46
53ae
4c0f
8df3
ae32
ee0d
ca1d
da49
59a0
f9b6
b9ae
f9c9
adca
574c
fa65
4889
c1ed
5cb7
84e8
0eab
a095
9a4f
d9ca
bd4d
f706
a326
389f
38f7
56cc
67ed
d1f5
962e
98c6
4b93
1edf
6c8a
5964
8cbb
954d
ca69
9087
4c29
cc89
636b
3570
2718
8fc5
0af6
c232
9e76
da2e
8198
84ca
78bb
bdb6
85bd
dffd
2c25
c926
8625
7455
a3a2
8426
6ea9
9b29
bedd
2a33
8810
54c3
72dd
b54d
4b23
52a3
5364
660f
8bdb
0cae
3c91
9b1b
6a44
eef2
1cd9
5367
d927
70e7
ebff
ebf9
2f7e
f955
bc12
4777
9bfd
66bf
e99e
63b9
24e1
f12e
854d
c5fd
6eaf
525c
d716
eecd
ed7f
145b
f9ba
e1b2
ba3e
3e22
ed5e
b593
cd89
b8fe
6798
3831
0b6f
0ba1
3f30
09d3
6c7e
788a
7408
7118
96a2
be9e
f24d
ed18
f967
63f1
f977
241e
1578
27dd
a2de
d5d1
1e2c
8847
3dff
7a07
8d26
e199
ffc9
7f91
5ecc
a5fe
4867
710d
bd3d
c20d
7087
668d
1fd5
bf7a
6e26
cb1a
0be9
2eb3
63b3
1761
7225
2bd1
867d
9e46
2c51
9826
a9ed
d692
4630
5e14
1b37
2278
e8db
6845
e063
12ab
9fd2
fc10
bf45
f3da
551c
d5cb
39f4
abdf
2aac
3e1f
bf31
9411
43b2
f5b5
448b
7923
85f7
961d
aee6
2bc3
bf76
8844
a32a
558b
7dfc
0b17
0b48
36d0
57be
5e58
9c4e
631c
e156
5432
31eb
3e0c
5a0f
e0b6
ddc1
1cf9
73b5
8256
1b1f
8ef0
97ce
c5bb
91e6
81f1
8806
8327
7f13
2239
c1fe
77f2
89b5
b58e
f561
a0bc
d7de
bf15
a882
f736
91e7
b161
a13d
4c11
584b
6297
24a9
1c2a
520f
2020
0ed9
6bb1
bb9d
1f07
a171
b999
6ebf
51dc
8fc2
6889
678e
f6e9
cdc9
b73e
8b60
7873
94d3
ab22
1a07
13c1
cea5
fdc3
9ca6
ad69
3e9a
5ff2
a9b5
8d65
7a6f
92cd
db29
98f2
98ae
438d
b931
ed14
4584
b9e6
1224
6934
3b97
53da
8a07
ca6e
966d
73c2
a6b2
099b
c94d
6310
c5a2
7338
2409
f54d
8c68
53cf
279b
12a1
1afc
f63b
2bfc
a67e
d3fa
df5a
ed20
d557
4363
7528
a695
ddf1
f1d5
fc38
2c38
9c6e
9515
ad4b
e0b9
5e9c
19ec
68d5
a59d
f175
9be2
e2b3
41bb
c0ca
d1fa
f756
28ef
bb15
1fa6
4f68
5a0b
a5d5
b581
ec22
28f7
ffca
2af7
e8fd
a072
5653
7e1a
a66d
3970
a1de
6859
5fa3
717c
dd93
72f4
c63b
3c7c
388c
0968
17a1
24c8
2ea3
4f9d
55c4
99e8
d73f
ecf9
1863
df56
14bb
c424
947d
99a4
d069
a0de
959b
45e4
4ff3
ddc3
a4e1
9991
60db
48cb
4ea0
56a3
4938
df8a
5574
7778
5c1a
f886
2053
b089
ba69
0c76
ed41
1be6
9839
6781
17e2
f627
bbb8
2c43
71f0
b013
9961
dffa
9d95
9f21
e528
e0f6
d0b6
1b34
686b
554c
8fab
cada
76eb
a1a3
443b
447b
6815
7cf3
3618
ce56
6a7f
3b18
0d48
c75d
9cfa
de4d
9321
15bc
35b4
73b9
1ccf
e00f
401c
38c7
0b99
7f99
2b81
a13a
b7c6
26ec
3588
58d5
5374
627c
eade
9f76
194f
0c4a
4724
759f
a2d4
f581
ce4e
7b78
14ed
b0a9
19a8
0bd4
2e5c
6abe
5e53
b2b8
6c13
f5f6
2010
d1e6
a969
3494
7ed9
9952
c547
e531
b027
2be0
e6fe
bf2d
74f0
67c1
955e
4c88
fec9
1be7
f32a
85c1
cef0
2a8a
1b10
a6b1
3c57
3c8b
f3ca
a719
710e
128f
96f0
a6f9
daa1
8c2d
e512
4813
630f
d54a
db52
2887
0fcb
38d2
b152
f1b9
1226
9a8e
7e8d
2fc2
c7ba
cd6e
14e5
392c
18d5
7f81
8e19
0a15
566f
abcb
e136
d156
44d7
732c
2f9f
6791
7885
fe93
efc2
883f
517c
5763
e195
ebd6
39fb
5943
7d20
b776
9a14
b816
725c
4260
da1a
5c51
c3fa
1557
4964
a336
8708
1684
6bde
af86
e1c5
caf6
7330
09e3
cc79
9015
1564
99ae
148c
07c1
44cf
2ce5
8da7
fa09
28d7
60c4
e64d
714b
e9ec
17e9
ba76
dd36
72b9
637b
f75e
43ee
9d85
903d
6613
feca
3e8d
d47d
ed09
9f12
f372
0c98
45d7
8d6b
245e
4cc3
9fa2
e126
f98a
6e4f
bab8
78fb
3cb0
8beb
256b
548f
7285
42bb
f239
a27e
0e25
5f85
9979
1318
24e9
e4ed
154b
617c
0a91
f215
cf1d
04cf
2b5a
073b
0e81
d25d
583a
f179
ff71
fc0c
c4b6
edae
28c8
0748
bef0
36cf
c25d
1e1c
1f60
e85a
95f5
96b9
a256
1bba
2f7c
16e2
75c4
4c37
21df
0817
6695
7927
954f
12ea
e09d
7974
faca
6e4b
689a
b1a1
4b89
73bb
93e6
6c2b
e9c9
f985
26b0
a6d2
8d19
3c0b
9db9
c3b6
0f25
8d8d
c5dd
d9e1
ea0e
caf1
f648
bc51
d709
21b0
f351
9a19
0a9f
2299
f960
c17d
adf5
33be
0a7b
b216
2c79
79d0
54bd
4808
59eb
400f
6e47
3e63
bbfb
9917
99d9
9b76
9b41
4e9b
2a44
9322
4826
bb55
6c4a
7eab
69e0
81ba
e30e
6917
bf51
b95a
9517
e529
2573
917f
b591
d9ea
6b1f
d155
3ff1
a466
37bc
6774
7208
d5c5
5213
7b74
ff87
d053
51e4
e8a6
fcb1
c014
1cc5
f69d
2ca3
99a6
1aaf
e973
6318
a009
e8b8
442f
331f
c23e
1bfb
bb6a
bc7a
8752
132b
58ef
7ae7
6958
867e
4373
634c
632c
1b87
f535
4b8d
abb8
6643
0c7d
c59e
39b7
e575
3797
3cf3
6653
5ee3
b93d
bd32
fd47
9535
b60e
7f86
1bb1
ef4a
4dac
e019
88ea
5acb
4ab4
9f45
c59a
0ffc
1a0f
5f2b
973e
e19d
54eb
4428
d8aa
3fc3
37e7
43c7
9fee
e392
ca29
4b4c
fb59
c312
b3e1
248c
e3a2
a2c2
1a6c
b9f6
68de
f553
5f93
d1dd
1291
2094
3a58
1b95
19df
f39e
3a07
ad52
8245
dec1
1c59
5cb9
4463
88a4
85b5
08c5
4794
f9ae
e269
3760
e5cf
9b08
46d7
8a1e
8d29
cde2
2491
bdf9
e772
808f
0947
1cb3
9d6d
ede6
37cc
a09f
f6ae
feb1
d086
5ef7
1c45
b3be
e426
220e
4078
2af1
88d9
44be
2c95
4814
c697
0b24
58fa
dd59
b5d6
941d
b86e
177f
1ad7
a19a
5e0b
338f
[...]
